{"\u30a2\u30f3": 83042, "##\u30d1": 62519, "##\u30b5\u30f3\u30c9": 1711, "(": 7461635, "&": 220720, "am": 88916, "##p": 160884, ";": 255315, "##\u3001": 22792, "\u82f1\u8a9e": 121026, "\u540d": 410672, ":": 594496, ")": 7434568, "\u3068": 13929229, "\u306f": 19841800, "\u4e26": 9525, "##\u7acb": 28712, "\u52a9": 46635, "##\u8a5e": 11218, "\u300c": 3903528, ".": 4413598, "\u300d": 3895074, "\u3092": 17058941, "\u610f\u5473": 180170, "\u3059\u308b": 3944225, "\u8a18\u53f7": 18344, "\u3067": 14319732, "\u3042\u308b": 4114916, "\u3002": 23027964, "\u30e9\u30c6\u30f3": 24750, "\u8a9e": 531700, "\u306e": 33565953, "\u5408": 27129, "##\u5b57": 23126, "\u3001": 31512196, "Tre": 3530, "##b": 80588, "##uch": 6652, "##et": 29825, "MS": 16405, "\u30d5\u30a9\u30f3\u30c8": 4805, "\u8868\u793a": 68162, "\u3055": 5382631, "\u308c": 5715654, "\"": 783048, "et": 7542, "\u3053\u3068": 2746526, "\u304c": 14174493, "\u5bb9\u6613": 22421, "\u306b": 25158884, "\u308f\u304b\u308b": 11859, "\u8a9e\u6e90": 9838, "\u6559\u80b2": 179873, "\u884c\u3046": 168315, "\u5b66\u6821": 580281, "\u30a2\u30eb\u30d5\u30a1\u30d9\u30c3\u30c8": 6366, "\u5fa9": 19737, "##\u5531": 5734, "\u5834\u5408": 383037, "\u305d\u306e": 1710507, "\u6587\u5b57": 85639, "\u81ea\u4f53": 41962, "\u5358\u8a9e": 20023, "\u306a\u308b": 885451, "(\"": 73149, "A": 217139, "##,": 41294, "I": 146612, "\u304b\u3064\u3066": 126945, "\u3082": 4364697, "\u3064\u3044": 445221, "\u3066": 14808249, "\u4f1d\u7d71": 51755, "\u7684": 1427677, "\"(": 26365, "\u305d\u308c": 510817, "\u7528\u3044": 177448, "per": 7091, "se": 30784, "\u3088\u3046": 1000185, "\u5531\u3048": 9838, "\u3089\u308c": 909223, "\u3044": 2387989, "\u305f": 17388624, "\u307e\u305f": 1025667, "\u6700\u5f8c": 129533, "27": 137446, "\u756a": 164586, "\u76ee": 465490, "##&": 17168, "##\"": 171132, "\u52a0\u3048\u308b": 8698, "\u5e83\u304f": 45198, "\u884c\u308f": 377259, "\u8aad\u307e": 5286, "\u5f8c": 1362755, "and": 44838, "\u308c\u308b": 1539406, "\u306a\u3063": 1638686, "\u7d50\u679c": 173821, "\u3057": 11936057, "X": 83689, ",": 657460, "Y": 50082, "Z": 50486, "\u3044\u3046": 1148342, "\u5f62": 276060, "\u3053\u306e": 1466133, "\u30d5\u30ec\u30fc\u30ba": 5336, "\u7e70\u308a\u8fd4\u3055": 4797, "\u3046\u3061": 176729, "##per": 10494, "##s": 416361, "##and": 15523, "\u8a1b": 1887, "##\u3063": 297368, "\u3044\u304d": 30629, "\u8a00\u8449": 93581, "1837": 3251, "\u5e74": 8203059, "\u307e\u3067": 957243, "\u4e00\u822c": 205791, "\u306a": 2491653, "##\u6cd5": 52853, "\u3057\u304b\u3057": 380099, "\u4ed6": 438083, "26": 142580, "\u3084": 1858484, "\u53e4": 74211, "\u00de": 132, "\u30bd\u30fc": 22632, "##\u30f3": 532783, "[UNK]": 186862, "\u30a6\u30a3\u30f3": 17936, "\u30a8": 57068, "##\u30ba": 353647, "\u3044\u3063": 219456, "\u304b\u3089": 3419455, "\u9664\u5916": 6301, "\u9055\u3044": 51933, "\u767a\u97f3": 19714, "\u8868\u3059": 32252, "\u3082\u306e": 962575, "\u306a\u3044": 1615498, "\u30a2\u30f3\u30c9\u30ec": 13358, "=": 303511, "\u30de\u30ea": 26936, "\u30fb": 6585736, "##\u30da\u30fc": 6508, "##\u30eb": 403040, "\u5f7c": 390654, "\u8457\u4f5c": 40533, "\u4f7f\u3044": 49259, "\u3053\u308c": 753346, "\u305f\u3081": 1314152, "Am": 9291, "##\u00e8": 4155, "##re": 54442, "'": 137769, "s": 152864, "\u547c\u3070": 261962, "\u8aa4\u3063": 8217, "\u4fd7": 9840, "##\u8aac": 29463, "\u6b74\u53f2": 228721, "\u8d77\u6e90": 24095, "1": 1987423, "\u4e16\u7d00": 178603, "\u30ed\u30fc\u30de": 88761, "\u7b46\u8a18": 3433, "\u4f53": 220099, "\u9061\u308b": 5682, "\u3067\u304d\u308b": 366909, "E": 97527, "T": 104664, "\u3057\u3070\u3057\u3070": 39450, "\u7e4b": 7656, "##\u3052": 31577, "\u66f8\u304b": 48766, "\u5de6": 75202, "##\u56f3": 12624, "\u5909\u9077": 14581, "\u5b57": 65146, "\u7d9a\u304f": 48239, "\u6d41": 62592, "##\u9e97": 3519, "\u5897\u3057": 8490, "\u65b0": 331697, "\u69d8\u3005": 92099, "\u6975\u3081\u3066": 21017, "\u983b\u7e41": 14351, "\u4f7f\u308f": 115261, "2": 2022755, "3": 1581936, "4": 1194920, "\u4e2d\u9803": 5234, "\u304a\u3051": 242363, "\u308b": 261983, "\u4f8b": 115754, "9": 586649, "\u30ab\u30ed": 8858, "##\u30ea\u30f3\u30b0": 47343, "\u5c0f": 367287, "\u81f3\u308b": 49527, "\u904e\u7a0b": 28289, "\u4f7f\u7528": 339866, "\u5ec3": 33500, "##\u308c": 170970, "\u7d9a\u3051": 110468, "\u6b21\u7b2c": 28253, "\u5143": 309607, "\u308f\u304b\u308a": 20287, "\u306b\u304f\u3044": 16048, "\u5909\u5316": 76723, "6": 773249, "\u73fe\u4ee3": 66043, "\u30a4\u30bf": 5004, "##\u30ea\u30c3\u30af": 10186, "\u30eb\u30cd\u30b5\u30f3\u30b9": 5615, "\u671f": 204266, "\u767a\u5c55": 71465, "145": 8434, "##5": 137406, "\u30e8\u30fc\u30ed\u30c3\u30d1": 90098, "\u5370\u5237": 19962, "\u6280\u8853": 134778, "\u767a\u660e": 16626, "\u4ee5\u964d": 225709, "\u696d": 85882, "\u8005": 1171235, "\u4e21\u65b9": 24999, "\u591a\u7528": 8420, "\u30eb\u30fc\u30c4": 5554, "\u6642\u4ee3": 462366, "\u591a\u304f": 353155, "\u8a00\u8a9e": 78187, "\u3042\u3063": 1050001, "\u4f8b\u3048\u3070": 66646, "101": 15466, "##1": 141981, "\u8868": 57937, "\u540c\u69d8": 137583, "\u30a2\u30e1\u30ea\u30ab": 437892, "\u5408\u8846": 136979, "\u56fd": 639377, "\u5730\u57df": 248953, "\u5b50\u4f9b": 93782, "\u9054": 92282, "\u3060": 909329, "\u6559\u3048": 43570, "1863": 6205, "M": 99276, "B": 151116, "Mo": 17004, "##ore": 22724, "\u8457\u66f8": 25183, "The": 72627, "Di": 11823, "##x": 39639, "##ie": 38175, "Pri": 10956, "##mer": 6049, "for": 90656, "the": 98853, "Little": 2590, "F": 134724, "##ol": 26232, "##k": 58627, "\u4e00": 789795, "\u898b\u308b": 55245, "\u30b8\u30e7\u30fc\u30b8": 34766, "\u30a8\u30ea\u30aa\u30c3\u30c8": 2426, "1859": 4584, "\u767a\u8868": 235132, "\u5c0f\u8aac": 91683, "\u4e2d": 931132, "Jac": 1870, "##ob": 10358, "Store": 2666, "##y": 148014, "\u6b21": 294232, "\u30bb\u30ea\u30d5": 5100, "\u8a9e\u3089": 9992, "\u305b": 398631, "\u3044\u308b": 3952698, "He": 14917, "th": 67360, "##ough": 3984, "##t": 320093, "it": 23627, "[": 87050, "]": 92426, "ha": 33830, "##d": 200643, "on": 23121, "##ly": 24915, "be": 42119, "##en": 44719, "p": 78005, "##ut": 38375, "to": 69196, "f": 68611, "##ini": 11512, "##sh": 32516, "off": 2382, "al": 24071, "##ph": 15560, "##ab": 17206, "l": 122463, "##ike": 11006, "##us": 60174, "w": 100372, "##ou": 17992, "##ld": 13407, "do": 25892, "##ne": 38908, "as": 13204, "##ell": 11565, "wh": 18884, "##at": 63033, "he": 15675, "co": 33515, "##ul": 20080, "##e": 251509, "\u3088\u304f": 120948, "\u77e5\u3089": 182691, "\u7ae5\u8b21": 2570, "All": 8613, "##ish": 9927, "##ed": 38230, "a": 82207, "##ce": 63084, "in": 58342, "##nd": 31064, "\u6b4c\u8a5e": 26107, "\u7de0\u3081": 9138, "##\u304f": 235789, "##\u304f\u3089": 3677, "\u30c6\u30a3": 42770, "\u30ed": 76587, "\u5f0f": 234539, "Unic": 2592, "##ode": 6331, "U": 75386, "+": 75207, "204": 3953, "\u5225": 142423, "##\u30ed": 165606, "\u540c\u3058": 196973, "\u6570\u5b57": 20632, "7": 690164, "\u4f3c": 52989, "\u4e21\u8005": 22541, "\u3068\u3082": 293471, "\u53e4\u4ee3": 45399, "\u4e2d\u4e16": 27727, "\u901a\u3057": 33015, "\u305d\u308c\u305e\u308c": 135791, "\u72ec\u7acb": 104473, "\u30a2\u30a4\u30eb\u30e9\u30f3\u30c9": 31957, "\u6587\u732e": 28408, "##g": 64667, "##\u300c": 11966, "##..": 4511, "##.": 17535, "\u4eca\u65e5": 106048, "\u30b2\u30fc": 16330, "\u4e00\u90e8": 213160, "\u4e3b\u306b": 102280, "\u88c5\u98fe": 13954, "\u76ee\u7684": 116872, "\u30ad\u30ea\u30b9\u30c8": 46173, "\u6559": 108879, "\u521d\u671f": 93851, "\u4fee\u9053": 27530, "\u9662": 239614, "\u5f71\u97ff": 174269, "\u3088\u3063": 556736, "\u66f8\u304d": 53152, "\u52a0\u308f\u3063": 16764, "\u53ef\u80fd": 277158, "\u6027": 442666, "\u624b": 201752, "##\u66f8\u304d": 12708, "\u65e5\u5e38": 19586, "\u6b27\u7c73": 14648, "\u03b5": 1738, "\u7e26": 18635, "##\u7dda": 35440, "\u5f15\u304f": 7651, "\u5358\u7d14": 20795, "\u5316": 461058, "t": 73648, "\u30d7\u30e9\u30b9": 12479, "\u8f2a": 30996, "\u91cd\u306d": 18555, "\u7121": 141794, "##\u58f0": 21964, "\u6b6f": 26318, "##\u830e": 6524, "\u5074\u9762": 23767, "\u6469\u64e6": 5105, "\u97f3": 90244, "\u793a\u3059": 57904, "\u30d7\u30ed\u30b0\u30e9\u30df\u30f3\u30b0": 9281, "C": 161724, "\u306a\u3069": 1498213, "\u591a\u6570": 84231, "AND": 2501, "\u6f14\u7b97": 8871, "\u5b50": 204786, "\u3089\u308c\u308b": 384067, "\u4ee5\u4e0b": 250955, "PHP": 1227, "\u5909\u6570": 10388, "\u5ba3\u8a00": 39380, "$": 5626, "\u76f4\u524d": 29093, "\u8a18\u8ff0": 58858, "\u53c2\u7167": 78940, "\u6e21\u3057": 9320, "BASIC": 2209, "\u7cfb\u5217": 49255, "\u5217": 31743, "\u9023\u7d50": 19492, "##ice": 25038, "_": 95220, "5": 926202, "\u8fd4\u3059": 3553, "\u30de\u30a4\u30af\u30ed": 19171, "\u30bd\u30d5\u30c8": 61149, "\u7cfb": 247173, "\u6574\u6570": 7498, "\u5341": 97209, "\u516d": 74249, "\u9032": 23164, "\u8868\u8a18": 83582, "15": 249944, "\u8868\u73fe": 87605, "SG": 3985, "##ML": 4388, "HTML": 2345, "\u4f7f\u3063": 71125, "\u5b9f\u4f53": 5480, "\u8a18\u4e8b": 48886, "\u3052\u3093": 9018, "\u3054": 66387, "\u7279\u306b": 153915, "\u81ea\u7136": 97304, "\u8ff0\u3079\u308b": 13226, "\u6982\u8981": 273116, "\u5e83": 57720, "\u8f9e": 11085, "##\u82d1": 4318, "\u5927": 655026, "\u6cc9": 27955, "\u8f9e\u5178": 7040, "\u7b49": 294502, "\u4ee5\u4e0a": 197968, "\u308f\u3051": 42031, "\u5927\u304d\u304f": 87860, "\u4e8c": 415253, "\u5206": 282734, "\u5f62\u5f0f": 78622, "\u8ff0\u3079": 83850, "1950": 41753, "\u4ee3": 392818, "\u5b66": 346248, "\u5b9a\u7fa9": 56588, "\u4f53\u7cfb": 18390, "\u9762": 113292, "\u6271\u3044": 30397, "\u8a00\u3044": 70689, "##\u63db\u3048\u308b": 1568, "\u6271\u3046": 21023, "\u304a\u308a": 590877, "\u304a\u3044": 407642, "\u5168\u304f": 36020, "\u95a2\u4fc2": 232421, "\u5206\u91ce": 54134, "\u305d\u3046": 128607, "\u8b70\u8ad6": 30810, "\u6587\u6cd5": 16896, "\u5f93\u3063": 28094, "\u4e26\u3073": 17004, "\u96c6\u5408": 28921, "\u4eba\u9593": 102777, "\u7528\u3044\u308b": 38590, "\u610f\u5fd7": 7692, "\u4f1d\u9054": 9555, "\u624b\u6bb5": 24636, "\u3042\u308a": 992385, "\u793e\u4f1a": 192523, "\u96c6\u56e3": 45321, "\u5185": 432177, "\u5f62\u6210": 74179, "\u7fd2\u5f97": 8281, "\u76f8\u4e92": 29725, "\u30b3\u30df\u30e5\u30cb\u30b1\u30fc\u30b7\u30e7\u30f3": 11377, "\u62bd\u8c61": 5757, "\u601d\u8003": 7039, "\u6d3b\u52d5": 315482, "\u6587\u5316": 183638, "\u652f\u3048": 14984, "\u500b\u5225": 11210, "\u7279\u5fb4": 111998, "\u7e54\u308a": 4897, "##\u8fbc\u307e": 19639, "\u5171\u540c": 76907, "\u30e1\u30f3\u30d0\u30fc": 119666, "\u5b66\u7fd2": 30111, "\u304a\u3088\u3073": 273105, "\u671b\u307e\u3057\u3044": 4243, "\u4eba\u683c": 6731, "\u3044\u304f": 159770, "\u30bd": 57398, "##\u30b7\u30e5\u30fc": 5195, "\u7814\u7a76": 344669, "\u4e0a": 510541, "\u975e\u5e38": 79595, "\u91cd\u8981": 106471, "\u5f79\u5272": 45792, "\u679c\u305f\u3057": 86178, "la": 20942, "##ng": 40000, "##ue": 20699, "\u30e9\u30f3\u30b0": 5694, "\u5bfe\u3057": 262561, "\u500b\u3005": 10271, "\u4eba": 1372321, "##ar": 41540, "##ole": 4484, "\u30d1\u30ed": 3019, "##\u30fc\u30eb": 81402, "\u7528\u8a9e": 28027, "\u3053\u3046": 127827, "\u3069\u306e": 40588, "\u7406\u89e3": 39744, "\u304b": 1009398, "\u8aac\u660e": 63288, "\u300e": 1636596, "\u5916": 132952, "##\u7684": 17220, "\u97f3\u58f0": 19757, "\u524d\u63d0": 14249, "\u767a": 67086, "##\u8a71": 22670, "\u4e86\u89e3": 2353, "\u5206\u3051": 35441, "\u5358\u4f4d": 42791, "##\u7d20": 15651, "\u5f62\u614b": 51202, "\u7d20": 37141, "##\u97fb": 4125, "\u69cb\u6210": 139823, "\u300f": 1608960, "\u300a": 15398, "\u300b": 14813, "\u9593": 441246, "\u7d50\u3073": 22525, "##\u4ed8\u3051": 33130, "\u65b9": 226013, "\u9023\u5408": 91270, "\u4f5c\u3089": 57454, "\u7fd2\u6163": 12708, "\u30b7": 65862, "##\u30cb": 120409, "##\u30d5\u30a3\u30a2": 2456, "##\u30d5\u30a3": 23010, "##\u30a8": 109588, "\u306a\u304a": 236264, "2016": 138406, "\u73fe\u5728": 479994, "\u4e0b": 282177, "##\u5730": 82844, "\u4e3b": 120168, "\u524d\u5f8c": 39610, "\u59cb\u307e\u308a": 36750, "\u5e83\u304c\u3063": 14964, "\u30c1\u30e7": 12473, "##\u30e0\u30b9": 12897, "##\u30ad\u30fc": 31629, "\u3088\u308b": 611194, "\u306f\u3058\u3081": 67880, "\u8af8": 61748, "\u7406\u8ad6": 51138, "\u3089": 540469, "\u3078": 1001094, "\u4fee\u6b63": 22722, "\u3042\u308b\u3044\u306f": 83416, "\u53cd\u8ad6": 7152, "\u7531\u6765": 87852, "\u5360\u3081": 20097, "\u666e\u901a": 61195, "\u8fd1\u4ee3": 41094, "\u69cb\u9020": 121724, "\u4e3b\u7fa9": 144995, "\u6ce8\u610f": 31895, "\u3060\u3051": 236119, "\u62d8": 7141, "##\u308b": 403351, "\u3042\u307e\u308a": 77935, "\u767a\u751f": 130259, "\u30a8\u30b9\u30da": 2191, "##\u30e9\u30f3\u30c8": 9731, "\u56fd\u969b": 199341, "\u88dc\u52a9": 22022, "\u4eba\u5de5": 20917, "\u7a4d\u6975": 29303, "\u4eba\u70ba": 2738, "\u3088\u308a": 1146022, "\u306a\u3055": 39547, "\u70b9": 217691, "\u4ee5\u5916": 137360, "\u504f": 19591, "##\u898b": 58972, "\u7406\u7531": 95581, "\u533a\u5225": 32108, "\u7121\u3044": 41306, "\u6301\u3064": 162130, "\u3064": 628262, "\u6027\u8cea": 25375, "\u524a": 6159, "##\u3044": 350215, "\u8a2d\u8a08": 97702, "\u30ed\u30b0": 5428, "\u30e9\u30f3": 55810, "\u6cbf\u3063": 19820, "\u52d5\u7269": 69967, "\u547c\u3076": 46263, "\u4e3b\u5f35": 78135, "\u666e\u904d": 5350, "\u6982\u5ff5": 35007, "\u3069\u3046": 124986, "\u4e0d": 217730, "\u660e\u78ba": 23071, "\u3055\u307e\u3056\u307e": 31577, "\u5206\u985e": 76908, "\u524d\u8ff0": 31533, "\u53e3": 92192, "##\u8a9e": 40417, "##\u982d": 56127, "\u66f8\u8a18": 17850, "\u6587": 116071, "\u91cd\u306a\u308b": 3122, "\u90e8\u5206": 142555, "\u306f\u3063\u304d\u308a": 14721, "\u65e5\u672c": 1615247, "\u5bfe\u5fdc": 103400, "\u624b\u8a71": 2381, "\u8a71\u3057": 48045, "##\u8a00\u8449": 4507, "\u540c\u4e00": 34968, "\u8996\u899a": 8711, "\u30d0\u30fc\u30b8\u30e7\u30f3": 36537, "\u7570\u306a\u308b": 88188, "\u8003\u3048": 222933, "\u305d\u3061\u3089": 3322, "\u5c48": 11198, "##\u6298": 8721, "\u81a0": 3047, "##\u7740": 24857, "\u5b64\u7acb": 7363, "\u8a73\u7d30": 42102, "\u985e\u578b": 3432, "\u8ad6": 89579, "\u30b3\u30f3\u30d4\u30e5\u30fc\u30bf": 42224, "\u5404": 183578, "\u5b9f\u969b": 96324, "\u53b3\u5bc6": 10311, "\u56f0\u96e3": 38435, "\u4f34\u3046": 30309, "\u898f\u5247": 26677, "\u3069\u3053": 32668, "\u660e\u8a18": 5211, "\u4eba\u3005": 76947, "\u306a\u304c\u3089": 193318, "\u306a\u304f": 461258, "\u5358\u4e00": 8966, "\u3055\u305b\u308b": 8817, "\u6750\u6599": 22420, "\u65b9\u8a00": 18971, "\u5730\u7406": 63698, "\u30d0\u30ea\u30a8\u30fc\u30b7\u30e7\u30f3": 7337, "\u666e\u53ca": 35800, "\u9593\u9055\u3044": 15176, "##\u304b\u3051": 13958, "\u7d42\u308f\u308b": 19351, "\u767a\u8a00": 30403, "\u901a\u5e38": 99833, "\u53cd\u3059\u308b": 4626, "\u3080\u3057\u308d": 13674, "\u3055\u304b": 5186, "##\u3093": 134398, "\u30c6\u30fc\u30de": 61068, "\u601d\u308f": 49069, "\u30b8\u30e3\u30c3\u30af": 21473, "\u30c7\u30ea": 6016, "##\u30c0": 138480, "\u30d5\u30e9\u30f3\u30b9": 207485, "\u30dd\u30b9\u30c8": 18990, "\u4ee3\u8868": 264652, "\u54f2\u5b66": 33637, "\u4f4d\u7f6e": 188781, "\u3065\u3051": 23561, "\u58f0": 65185, "\u57fa\u790e": 41469, "\u4ee3\u66ff": 17474, "\u767a\u60f3": 4688, "\u4e2d\u5fc3": 218409, "Ph": 10131, "##on": 85561, "##oc": 10046, "##ent": 14471, "##ris": 7649, "##m": 179243, "\u79f0\u3059\u308b": 11497, "\u5b58\u5728": 291383, "\u5bfe\u3059\u308b": 122645, "\u6279\u5224": 64956, "\u6295\u3052": 23424, "##\u304b\u3051\u308b": 3834, "\u7acb\u5834": 33573, "\u73fe\u8c61": 29523, "\u30b0\u30e9": 22632, "##\u30de\u30c8": 3512, "##\u30ed\u30b8\u30fc": 6440, "\u5dee": 57504, "##\u5ef6": 9101, "\u6c11\u65cf": 51056, "\u6ec5\u4ea1": 10796, "##\u8a00": 21809, "\u5438\u53ce": 24222, "\u6b7b": 69502, "\u518d\u3073": 88828, "\u6bcd": 100788, "\u305f\u3060": 42091, "\u30d8\u30d6\u30e9\u30a4": 4921, "\u3057\u304b": 96221, "\u5fa9\u6d3b": 40708, "\u5b8c\u5168": 87782, "\u6d88\u6ec5": 25993, "\u6587\u7ae0": 28419, "\u5b58\u7d9a": 15063, "\u30d1\u30ec\u30b9\u30c1\u30ca": 6699, "\u79fb\u4f4f": 28528, "\u30e6\u30c0\u30e4": 39772, "\u305f\u3061": 286538, "20": 290410, "\u5165\u3063": 94185, "\u30a4\u30b9\u30e9\u30a8\u30eb": 21824, "\u5efa\u56fd": 11743, "\u516c\u7528": 4528, "\u6307\u5b9a": 94675, "\u518d\u751f": 25036, "\u307b\u304b": 174024, "\u53e4\u5178": 22999, "\u30a2\u30e9\u30d3\u30a2": 12188, "\u30ae\u30ea\u30b7\u30e3": 26803, "\u3082\u306f\u3084": 6980, "\u305a": 461970, "##\u5178": 14268, "\u5b97\u6559": 49472, "\u884c\u70ba": 50859, "\u306e\u307f": 242579, "\u5178": 14195, "##\u793c": 15413, "\u8fd1\u5e74": 50277, "\u8a71\u8005": 6106, "\u6570": 345228, "\u5c11\u306a\u3044": 48478, "\u98f2\u307f": 16982, "\u65b0\u305f": 87361, "##\u3059": 146687, "\u554f\u984c": 203961, "\u8996": 25653, "\u306a\u308a": 506226, "\u5371\u6a5f": 28083, "\u4e16\u754c": 423816, "\u4e00\u4f53": 18133, "\u9032\u307f": 20009, "\u4ea4\u901a": 115974, "\u7db2": 31404, "\u6574\u5099": 72705, "\u6d41\u901a": 19295, "\u8fc5\u901f": 4967, "\u30e9\u30b8\u30aa": 90506, "\u30c6\u30ec\u30d3": 305522, "\u30de\u30b9": 24388, "\u30e1\u30c7\u30a3\u30a2": 54095, "\u767a\u9054": 25969, "\u4fdd\u3063": 6343, "\u5c0f\u3055\u306a": 38827, "\u30b3\u30df\u30e5\u30cb\u30c6\u30a3": 21238, "\u7dad\u6301": 46894, "\u3067\u304d": 311235, "\u8d77\u3053\u308b": 18666, "\u5927\u304d\u306a": 113307, "\u8996\u70b9": 12345, "\u52e2\u529b": 48268, "\u4f38": 13390, "##\u5f35": 12410, "\u4e3b\u8981": 71762, "\u7e2e\u5c0f": 13783, "\u3044\u308f\u3086\u308b": 34485, "\u5e1d\u56fd": 113168, "\u542b\u307e": 78311, "\u3044\u3048\u308b": 17059, "\u3059\u304f": 3304, "##\u306a\u304f": 7396, "21": 183118, "\u521d\u982d": 27276, "\u6d3e": 136882, "\u5360\u3081\u308b": 17683, "\u56fd\u5bb6": 89440, "\u9664\u3044": 20142, "\u30b0\u30ed\u30fc\u30d0\u30eb": 9743, "\u76f4\u7d50": 5165, "\u570f": 72342, "\u96a3\u63a5": 49326, "\u5fc5\u305a": 31929, "\u3057\u3082": 18201, "\u4ea4\u6d41": 42225, "\u4e0d\u53ef\u6b20": 5546, "\u53d6\u308a\u8fbc\u307e": 2536, "\u8d77\u304d\u308b": 8934, "\u52d5\u304d": 38222, "\u4eba\u7684": 2910, "\u76db\u3093": 21624, "\u5148\u9032": 8920, "\u56fd\u5185": 75615, "\u9855\u8457": 10244, "\u5317": 211574, "\u30aa\u30fc\u30b9\u30c8\u30e9\u30ea\u30a2": 47870, "\u6025\u901f": 17647, "\u7d4c\u6e08": 156134, "\u6210\u9577": 50762, "\u6709": 69288, "##\u610f": 30328, "\u76f8\u95a2": 4109, "\u9032\u3093": 33032, "2010": 169721, "\u30a4\u30f3\u30c9": 68811, "\u9818": 65887, "##\u30de\u30f3": 87665, "\u8af8\u5cf6": 40554, "\u540c": 291934, "\u8b66\u544a": 8850, "\u767a\u305b": 1967, "\u3044\u3064": 73422, "\u751f\u307e\u308c": 147785, "\u5730\u7403": 62060, "\u30f6\u6240": 7922, "\u8907\u6570": 69711, "\u308f\u304b\u3063": 12100, "\u304a\u3089": 40516, "\u8aac": 80823, "\u30c7\u30f3\u30de\u30fc\u30af": 18820, "\u30aa\u30c3\u30c8\u30fc": 6156, "\u30a4\u30a7": 13820, "##\u30b9": 501494, "##\u30da\u30eb": 11614, "##\u30bb\u30f3": 31643, "\u751f\u7269": 55739, "\u89b3\u70b9": 14294, "\u63a2": 10899, "##\u308d\u3046": 29330, "\u8a66\u307f": 26353, "\u6700\u8fd1": 50482, "\u5206\u5b50": 28596, "\u3088\u308c": 62160, "\u3070": 432235, "FOX": 2720, "##P": 99953, "\u540d\u3065\u3051": 7960, "\u907a\u4f1d": 30743, "\u751f\u3058": 30678, "\u7a2e": 133302, "\u5909\u7570": 8481, "\u80fd\u529b": 78304, "\u7372\u5f97": 150499, "\u3064\u306a\u304c\u3063": 10596, "\u3055\u3089\u306b": 218200, "\u73fe\u751f": 2815, "\u4eba\u985e": 22858, "\u30cd": 38013, "##\u30a2\u30f3": 33082, "##\u30c7\u30eb": 23601, "##\u30bf\u30fc\u30eb": 7253, "\u5206\u5316": 4820, "\u4ee5\u524d": 102083, "30": 245110, "-": 1648509, "40": 96917, "\u4e07": 313415, "\u524d": 449710, "\u3059\u3067\u306b": 32472, "\u89e3\u6790": 17925, "\u767b\u5834": 214044, "\u65e2\u306b": 37116, "\u8eab": 47255, "\u3064\u3051": 54607, "\u6709\u3057": 27275, "\u6301\u3063": 115446, "\u5fc5\u8981": 195127, "\u6761\u4ef6": 63810, "\u76f4\u63a5": 59680, "\u8a3c\u660e": 29957, "\u307e\u3060": 75442, "\u7559": 15721, "\u9032\u5316": 21314, "\u6b62\u307e\u3063": 4260, "\u751f\u304d\u6b8b\u3063": 4832, "\u751f\u304d": 28467, "\u5316\u77f3": 12569, "\u4e00\u898b": 4930, "\u7a2e\u985e": 71802, "\u5168": 253684, "##\u7136": 28511, "\u30b1\u30fc\u30b9": 28580, "\u8d77\u304d": 42685, "\u901f\u5ea6": 45665, "\u4e00\u5b9a": 32291, "\u4fb5\u7565": 9852, "\u4ea4\u6613": 11540, "\u79fb\u52d5": 70748, "\u63a5\u89e6": 18664, "\u591a": 86611, "##\u3051\u308c": 7705, "\u6642": 640161, "\u30eb\u30fc\u30de\u30cb\u30a2": 12587, "\u30a2\u30eb\u30d0\u30cb\u30a2": 5757, "\u30a2\u30eb\u30e1\u30cb\u30a2": 7922, "\u9006": 61217, "\u307b\u3068\u3093\u3069": 109515, "\u30c9\u30a4\u30c4": 202390, "\u30a2\u30a4\u30b9\u30e9\u30f3\u30c9": 5698, "\u30b9\u30e9\u30f4": 5381, "##\u6d3e": 16032, "\u30d0\u30eb\u30c8": 9125, "\u30ea\u30c8\u30a2\u30cb\u30a2": 11055, "\u30b5\u30f3\u30b9\u30af\u30ea\u30c3\u30c8": 2549, "\u57fa\u672c": 97197, "1000": 34282, "\u5909": 39676, "\u3082\u3068\u3082\u3068": 21861, "\u7956": 17622, "\u30b0\u30eb\u30fc\u30d7": 145350, "\u65cf": 70973, "##\u7fa4": 8771, "\u305d\u3057\u3066": 191516, "\u7d30\u5206": 3084, "\u306a\u3093": 42962, "\u5c5e\u3059\u308b": 36675, "\u306a\u304b": 40254, "\u73fe\u5b58": 22971, "\u7cfb\u7d71": 56283, "\u7acb": 178089, "##\u8a3c": 14461, "\u8fd1\u63a5": 6220, "\u7570\u306a\u3063": 20223, "\u3042\u3044": 23068, "\u985e\u4f3c": 24556, "\u4e8b\u4f8b": 17971, "\u898b": 341740, "\u7fa4": 100009, "\u5171\u901a": 43469, "\u8a9e\u5f59": 6149, "\u5e74\u4ee3": 59712, "\u5272\u308a": 9537, "##\u51fa\u3059": 27124, "\u65b9\u6cd5": 92976, "\u8003\u6848": 12779, "\u53f2": 88749, "\u4f5c\u308b": 36081, "\u7db4\u308a": 3417, "Ol": 4337, "Mi": 12648, "##le": 48899, "Mod": 4808, "##ern": 5262, "\u5206\u5272": 31358, "\u6559\u4f1a": 85405, "\u4ed8\u3051": 78087, "\u307e\u307e": 129008, "\u4e21": 167666, "\u6df1": 36527, "##\u307e\u308b": 21241, "\u3064\u308c": 15508, "\u76f8\u624b": 70863, "\u501f\u7528": 3681, "\u5546\u696d": 46795, "\u751f\u6d3b": 133356, "\u6df7\u6210": 3587, "\u30d4": 41308, "##\u30b8\u30f3": 25316, "\u7c21\u7565": 3315, "\u3068\u308b": 18250, "\u3084\u304c\u3066": 29525, "\u5897\u3048": 31199, "\u304f\u308b": 55519, "\u30af\u30ec\u30aa": 3503, "\u65b0\u3057\u3044": 89616, "\u6bd4\u3079": 40043, "\u4f55": 199956, "\u304d\u3061\u3093\u3068": 3594, "\u3060\u3063": 462769, "\u500b": 75554, "\u307f\u306a\u3057": 4959, "\u5dee\u3057": 18452, "##\u652f": 4190, "##\u3048": 125104, "\u9694": 6779, "##\u305f\u308a": 3279, "\u307f": 133754, "\u571f\u5730": 54886, "\u63a1\u7528": 119673, "\u6b27\u5dde": 44147, "\u77e5\u8b58": 29013, "\u8853": 20210, "\u6539\u9769": 42767, "\u5404\u56fd": 28612, "\u969b": 210108, "\u9023\u7d9a": 88022, "\u6301\u305f": 30141, "\u306a\u304b\u3063": 472490, "\u6a19\u6e96": 53930, "\u6cd5": 282030, "\u5b9a": 53756, "##\u307e\u3063": 27920, "\u5236\u5b9a": 34076, "\u51fa\u7248": 93698, "\u7269": 194710, "\u5f90\u3005": 22740, "\u3042\u308c": 48698, "\u4e2d\u592e": 160419, "\u516c\u7684": 9991, "\u7d71\u5236": 11194, "\u6a5f\u95a2": 149311, "\u7f6e\u3044": 28218, "\u4e3b\u5c0e": 17026, "\u3044\u305a\u308c": 75401, "\u305b\u3088": 8385, "\u6210\u7acb": 65224, "\u56fd\u6c11": 79180, "\u305b\u308b": 173825, "\u3046\u3048": 24376, "\u30d4\u30fc\u30b9": 7173, "\u6700\u3082": 122700, "\u8a95\u751f": 61874, "\u77ac\u9593": 11253, "\u3068\u3089\u3048": 4145, "\u30cb": 73315, "##\u30ab\u30e9": 10749, "##\u30b0\u30a2": 4544, "1970": 66356, "\u5f8c\u534a": 60773, "\u751f": 268248, "##\u5f97": 6812, "\u88cf": 44978, "##\u4ed8\u3051\u308b": 6939, "\u7bc4\u56f2": 42413, "\u78ba\u5b9a": 18616, "\u5343": 68238, "\u6570\u767e": 9703, "\u6570\u5343": 6672, "\u8a00\u308f": 86457, "1939": 23613, "L": 70769, "H": 102991, "\u30b0\u30ec\u30a4": 14075, "##96": 1464, "1979": 38446, "\u30de\u30a4": 40584, "##\u30e4\u30fc": 22421, "420": 3140, "##0": 185541, "56": 29036, "##00": 21748, "\u4e09": 360340, "##\u7701": 8709, "\u5802": 58954, "\u7de8": 46544, "8000": 6728, "\u8d85": 65106, "\u6271\u3063": 11150, "\u6b63\u78ba": 24519, "\u6570\u3048\u308b": 3795, "\u307b\u307c": 73846, "\u672a": 68568, "\u767a\u898b": 104021, "\u3064\u3064": 54062, "\u539f\u7406": 14569, "\u96a3": 20819, "##\u308a": 246911, "##\u5408\u3063": 13424, "\u3068\u304d": 193803, "\u96e3\u3057\u3044": 33246, "##\u63db\u3048": 6326, "\u3088\u3044": 29519, "\u305f\u3068\u3048\u3070": 23980, "\u65e7": 170552, "\u30e6\u30fc\u30b4\u30b9\u30e9\u30d3\u30a2": 8324, "\u5c5e\u3057": 31108, "\u30bb\u30eb\u30d3\u30a2": 15126, "\u30af\u30ed\u30a2\u30c1\u30a2": 10932, "\u30dc\u30b9\u30cb\u30a2\u30fb\u30d8\u30eb\u30c4\u30a7\u30b4\u30d3\u30ca": 3448, "\u30e2\u30f3\u30c6\u30cd\u30b0\u30ed": 3196, "##\u901a": 23793, "\u5b66\u8853": 18981, "\u6271\u308f": 15477, "\u653f\u6cbb": 145011, "\u7d71\u4e00": 47627, "1991": 52973, "\u7d1b\u4e89": 16179, "\u5d29\u58ca": 29283, "\u5730\u65b9": 172393, "\u30dc\u30b9\u30cb\u30a2": 2380, "2006": 136927, "\u5730": 364609, "\u547c\u3073": 32341, "\u30a4\u30ae\u30ea\u30b9": 186892, "\u4e2d\u56fd": 213445, "\u5317\u4eac": 27088, "\u8a71": 145504, "\u4e0a\u6d77": 22902, "\u5e83\u6771": 7132, "\u9060\u9694": 4968, "\u5dee\u7570": 7465, "\u4f1a\u8a71": 24144, "\u307b\u3069": 139015, "\u3059\u3079\u3066": 92926, "##\u5185": 66265, "\u5224\u5b9a": 35759, "\u57fa\u6e96": 43451, "\u63d0\u5531": 17607, "\u8a00\u3046": 75371, "\u8ddd\u96e2": 72971, "\u4f1d\u3048\u308b": 15729, "\u60c5\u5831": 153229, "\u3057\u3088\u3046": 66555, "\u96e3": 37969, "##\u3057": 286941, "\u3068\u3069": 3720, "##\u307e\u3089": 16021, "\u76f4\u9762": 6175, "\u805e\u304d": 28799, "##\u53d6": 18631, "\u3082\u3046": 92133, "\u5e83\u304c\u308a": 16832, "\u3059": 82133, "\u3079\u304d": 79209, "\u307e\u3063\u305f\u304f": 12707, "\u6c7a\u3081": 58163, "\u969b\u3057": 24521, "\u7406": 21175, "##\u5c48": 6436, "\u3042\u3048\u3066": 5185, "\u62bc\u3057": 30418, "\u73fe\u5b9f": 25807, "\u30a2\u30a4\u30c7\u30f3": 3595, "##\u30c6\u30a3\u30c6\u30a3": 4329, "\u6df1\u304f": 19579, "\u8a2d\u3051": 57223, "##\u3088\u3046": 56390, "\u8cdb\u6210": 11175, "\u5f97": 148881, "\u5f37\u3044": 67147, "\u53cd\u767a": 14915, "\u53d7\u3051\u308b": 58816, "\u8aa4\u308a": 8474, "##\u62e0": 4686, "\u3082\u3063": 59205, "\u7d50\u5c40": 35159, "\u6163\u7fd2": 6690, "\u3054\u3068": 55738, "\u7b2c": 1152468, "\u307e\u305a": 40593, "\u975e": 99764, "##\u7cfb": 16518, "\u9078\u5b9a": 15986, "\u79e4": 660, "\u304b\u3051": 184043, "\u601d\u3063": 70729, "\u540c\u58eb": 24809, "\u6063": 1219, "\u4e00\u65b9": 156322, "\u305f\u3068\u3048": 7266, "\u8a71\u3055": 6149, "\u307f\u306a\u3055": 11442, "\u4e8b\u5b9f": 56622, "\u6709\u308b": 3691, "\u7518": 17834, "##\u7c9b": 2942, "\u7701": 169256, "\u4f4f\u3080": 22159, "\u5c11\u6570": 17639, "\u30e6\u30fc": 27613, "##\u30b0": 112512, "\u897f\u90e8": 37134, "\u30c6\u30e5": 4542, "##\u30eb\u30af": 8372, "\u6771\u90e8": 34882, "\u30e2\u30f3\u30b4\u30eb": 22408, "\u610f\u8b58": 36723, "\u5225\u3005": 6193, "\u6d77\u5357": 2702, "\u5cf6": 192801, "##\u3080": 70075, "\u81e8": 11815, "\u9ad8": 249582, "\u7c4d": 7804, "\u6f22": 34904, "\u3069\u304a\u308a": 5710, "\u30bf\u30a4": 65359, "\u30ab": 53799, "##\u30c0\u30a4": 13132, "\u5224\u65ad": 40581, "\u5909\u66f4": 161758, "\u4f75\u7528": 9882, "\u73cd\u3057\u3044": 12509, "\u3055\u307b\u3069": 3126, "\u4e0e\u3048": 115037, "\u5358\u306b": 20440, "\u904e\u304e": 31598, "\u4e0a\u8a18": 38193, "\u30ad\u30ea": 7904, "\u4e21\u56fd": 13078, "\u4ef2": 26265, "\u6975\u5ea6": 2641, "\u60aa\u5316": 23347, "\u30c7\u30fc": 18322, "##\u30f4\u30a1": 57639, "##\u30ca\u30fc": 55722, "##\u30ac": 104447, "##\u30ea\u30fc": 139821, "\u30d2\u30f3": 6516, "##\u30c7\u30a3\u30fc": 24778, "\u30a6\u30eb": 20633, "##\u30c9\u30a5": 17595, "##\u30fc": 371730, "\u30d1\u30ad\u30b9\u30bf\u30f3": 7714, "\u30d2\u30f3\u30c9\u30a5": 418, "##\u30b9\u30bf\u30fc": 31650, "##\u30cb\u30fc": 71273, "\u666e\u6bb5": 12089, "\u4eba\u53e3": 139007, "\u9806\u4f4d": 19907, "\u4e0a\u4f4d": 28751, "\u901a\u308a": 164303, "\u591a\u3044": 191921, "\u4e2d\u83ef": 46845, "\u4eba\u6c11": 60165, "\u5171\u548c": 119011, "\u6c11\u56fd": 36926, "\u53f0\u6e7e": 73683, "\u30b7\u30f3\u30ac\u30dd\u30fc\u30eb": 17883, "\u3059\u304e": 28884, "\u542b\u3081": 57773, "13": 200693, "\u4f4d": 344609, "\u30b9\u30da\u30a4\u30f3": 76047, "\u5927\u9678": 42231, "\u767a\u7965": 8431, "17": 185351, "\u690d\u6c11": 32808, "\u7d4c": 155297, "\u5357": 213952, "\u5357\u90e8": 61972, "\u5e83\u5927": 9443, "2007": 147141, "\u5e74\u5ea6": 113516, "\u56fd\u3005": 5665, "19": 189180, "\u30ab\u56fd": 9164, "\u306e\u307c\u308b": 3185, "\u30dd\u30eb\u30c8\u30ac\u30eb": 24846, "\u5408\u308f\u305b": 54307, "\u9818\u57df": 37669, "\u30e9\u30c6\u30f3\u30a2\u30e1\u30ea\u30ab": 3303, "55": 39845, "\u304b\u56fd": 7486, "\u4f34\u3044": 68179, "\u30d3\u30b8\u30cd\u30b9": 26694, "\u5834\u9762": 23093, "\u4f4f\u6c11": 54523, "\u4ea4\u6e09": 34524, "\u529b": 198154, "\u5897\u5927": 12181, "\u50be\u5411": 37788, "\u6b21\u3050": 18806, "\u897f\u6d0b": 17522, "\u6709\u529b": 22704, "\u6319\u3052": 88953, "76": 21832, "##80": 3580, "\u30c8\u30c3\u30d7": 64177, "10": 719705, "\u5165\u3089": 7357, "\u30a2\u30d5\u30ea\u30ab": 43933, "29": 132661, "\u3061\u306a\u307f": 20890, "\u56fd\u9023": 14059, "\u30ed\u30b7\u30a2": 114756, "\u5b89\u5168": 55029, "\u4fdd\u969c": 18498, "\u7406\u4e8b": 48505, "\u4f1a": 441616, "\u5e38\u4efb": 5479, "\u52a0\u3048": 95651, "\u5e83\u3044": 17581, "\u30af\u30eb": 24604, "##\u30a2\u30fc": 30337, "\u30a4\u30b9\u30e9\u30e0": 19825, "\u5168\u57df": 15786, "\u3068\u304f\u306b": 8710, "\u4e2d\u6771": 9230, "23": 159187, "\u306e\u307c": 3086, "\u3072\u3068": 69381, "\u30a2\u30e9\u30d6": 15117, "\u305f\u3060\u3057": 112113, "\u30d5": 43234, "\u30cf\u30fc": 42063, "\u30a2\u30fc": 47616, "\u30df\u30fc": 13450, "##\u30e4": 69439, "\u5206\u304b\u308c": 22957, "\u308f\u304b": 7020, "\u8981\u7d20": 46369, "\u30ab\u30ca\u30c0": 50201, "\u30d9\u30eb\u30ae\u30fc": 19048, "\u30d5\u30e9": 22334, "\u30ef": 32675, "##\u30ed\u30f3": 44178, "\u30aa\u30e9\u30f3\u30c0": 43951, "\u5bfe\u7acb": 38139, "\u6226\u4e89": 167648, "\u6fc0\u5316": 5375, "\u53ca\u307c\u3059": 5176, "\u73cd\u3057\u304f": 7884, "\u6771": 267328, "\u897f": 226259, "\u30d9\u30f3\u30ac\u30eb": 3816, "##\u683c": 16413, "\u56fd\u8a9e": 6801, "\u6c42\u3081": 61859, "\u904b\u52d5": 113574, "\u6700\u7d42": 122460, "\u30d0\u30f3\u30b0": 3464, "##\u30e9": 235016, "##\u30c7\u30b7\u30e5": 3578, "\u81ea\u6cbb": 80661, "\u6a29": 258244, "\u305f\u308a": 200672, "\u8a2d\u7acb": 148488, "\u5ea6": 266462, "\u4f75": 8256, "##\u5b58": 5355, "\u9023\u90a6": 80938, "\u30b9\u30a4\u30b9": 25397, "1848": 5372, "\u61b2\u6cd5": 38096, "\u30a4\u30bf\u30ea\u30a2": 104204, "\u5236": 90390, "1938": 21569, "\u30ed\u30de\u30f3": 12085, "\u30b7\u30e5": 50039, "\u4e0d\u6e80": 15636, "\u306a\u3060": 3001, "##\u3081\u308b": 23597, "\u653f\u7b56": 61776, "1956": 25627, "\u533a\u5206": 24315, "\u5dde": 373248, "\u518d\u7de8": 16447, "\u53d6\u3063": 32424, "\u90e8\u65cf": 13321, "\u5c64": 50719, "\u3082\u3063\u3068\u3082": 23576, "\u6e1b\u5c11": 44389, "\u3068\u308c": 5490, "\u3064\u307e\u308a": 31683, "\u901a\u7528": 4379, "\u6765": 188162, "\u653f\u5e9c": 158501, "\u6587\u66f8": 39484, "\u5206\u96e2": 43777, "\u3042\u3089": 44101, "##\u308f\u308c": 8087, "\u5b97": 67747, "##\u4e3b": 24488, "\u6559\u6388": 137638, "##\u96e2\u308c": 2895, "\u7a74": 21546, "\u57cb\u3081\u308b": 2773, "\u9996\u90fd": 41965, "\u5f37\u5927": 3707, "\u8986\u3046": 4019, "\u9045\u308c": 29375, "\u53cd\u5bfe": 64640, "\u30a8\u30ea\u30fc\u30c8": 4664, "\u6a29\u529b": 20817, "\u6e90\u6cc9": 3245, "\u4e8b\u60c5": 22270, "\u5fc3\u7406": 24226, "\u53ca\u3073": 141056, "\u795e\u7d4c": 27964, "\u6a5f\u80fd": 112470, "\u30d2\u30c8": 15538, "\u56fa\u6709": 17258, "\u4f8b\u5916": 16706, "\u9664\u304d": 15949, "\u30e2\u30c7\u30eb": 114514, "\u4f5c\u308a": 37886, "\u8133": 29745, "\u6897\u585e": 3270, "\u5c40\u6240": 5535, "\u7834\u58ca": 47998, "\u75c7\u4f8b": 3067, "\u640d\u50b7": 15910, "\u88ab": 30043, "##\u9a13": 3712, "\u5448": 1705, "##\u793a": 16262, "\u5e72\u6e09": 8036, "\u52b9\u679c": 64187, "\u304d": 300924, "1980": 74902, "\u30a4\u30e1\u30fc\u30b8": 42292, "##\u30f3\u30b0": 52972, "\u624b\u6cd5": 28898, "\u52a0\u308f\u308a": 9299, "\u8ab2\u984c": 17473, "\u884c\u3063": 281913, "\u95a2\u3059\u308b": 129043, "\u30d6\u30ed\u30fc": 6967, "##\u30ab": 149318, "\u30a6\u30a7\u30eb": 10559, "##\u30c3\u30b1": 6068, "\u30b7\u30eb": 14370, "##\u30f4\u30a3": 33296, "\u30a6\u30b9": 7295, "\u88c2": 7211, "\u56f2\u3080": 2938, "\u7e01": 26603, "##\u56de": 4946, "\u89d2": 41307, "\u8074\u899a": 3169, "\u91ce": 56301, "##\u6027": 42725, "\u611f\u899a": 13112, "\u524d\u982d": 4052, "##\u91ce": 108176, "##\u4e0b": 45671, "\u5074": 172859, "\u56de": 465786, "\u308f\u305f\u3063": 29502, "\u5404\u90e8": 2551, "\u9055\u3063": 11947, "\u30bf\u30a4\u30d7": 46762, "\u5931": 18656, "\u51fa\u73fe": 22955, "\u4ed8\u8fd1": 63540, "\u751f\u3058\u308b": 19178, "\u81ea\u767a": 3587, "##\u66a2": 1889, "\u66f8": 139874, "\u969c\u5bb3": 50247, "\u8449": 46567, "\u4e0d\u826f": 12053, "\u53f3": 61693, "##\u5229\u304d": 3450, "\u534a\u7403": 4854, "\u512a\u4f4d": 8348, "\u6291": 6141, "##\u63da": 8065, "\u30d7\u30ed": 183021, "##\u30bd": 58274, "##\u30c7\u30a3": 97433, "\u628a\u63e1": 8561, "\u6bd4": 48550, "##\u55a9": 3069, "\u8a8d\u8b58": 30864, "\u7d21": 3267, "##\u9318": 1226, "\u72b6": 62309, "\u5f8c\u982d": 1759, "\u95a2\u4e0e": 21353, "\u6f22\u5b57": 35296, "\u3072\u3089": 11620, "##\u304c": 47487, "##\u306a": 46379, "##\u97f3": 35855, "\u90e8\u4f4d": 8461, "\u65b9\u9762": 65524, "\u500b\u4eba": 75881, "\u5168\u4f53": 82530, "\u77e5\u7684": 8896, "\u4e56": 1408, "##\u96e2": 12604, "\u8aad": 9272, "\u30a6\u30a3\u30ea\u30a2\u30e0\u30ba": 9466, "\u75c7\u5019": 8568, "\u81ea": 56325, "##\u9589": 4052, "\u75c7": 48671, "\u500b\u4f53": 23558, "\u30d2\u30f3\u30c8": 4336, "\u74b0\u5883": 89151, "\u8074\u53d6": 5091, "\u81ea\u529b": 3305, "\u898b\u51fa\u3057": 5811, "\u5099\u3048": 37415, "##\u308f\u3089": 11133, "\u8a73\u3057\u304f": 9588, "\u8fd1": 29148, "\u8d64\u5916": 5466, "\u7dda": 450506, "\u5206\u5149": 3042, "\u751f\u5f8c": 3190, "~": 167236, "\u65e5": 2783066, "\u65b0\u751f": 6863, "\u5150": 15425, "\u9806": 43819, "\u805e\u3044": 39405, "\u307b\u3046": 59088, "\u5916\u56fd": 68211, "\u6bcd\u56fd": 6454, "\u76ae": 14305, "##\u8cea": 32627, "\u8840": 41047, "##\u6d41": 40389, "\u5897\u52a0": 58202, "\u5927\u304d\u304b\u3063": 5164, "\u5831\u544a": 69303, "Pe": 12196, "##\u00f1": 1885, "##a": 161575, "P": 82880, "##NA": 8558, "##S": 181794, "2003": 90656, "\u51fa\u7523": 12166, "\u6bcd\u4f53": 7723, "\u8074\u3044": 6513, "\u793a\u5506": 15615, "\u306b\u307b\u3093": 14142, "\u306b\u3063\u307d\u3093": 2622, "\u6cd5\u4ee4": 9712, "\u898f\u5b9a": 52475, "\u5168\u3066": 111234, "\u5404\u7a2e": 27678, "\u6559\u79d1": 14694, "\u552f\u4e00": 54995, "\u7d71\u8a08": 30129, "\u56fd\u5916": 17906, "\u65e5\u7cfb": 6478, "\u7d71\u6cbb": 33212, "\u7d04": 258575, "\u5104": 73786, "\u4ee5\u5185": 18541, "\u5165\u308b": 62620, "\u4eba\u6570": 15524, "##\u80b2": 7090, "\u53cd\u6620": 15031, "2019": 129972, "\u6708": 3561530, "\u30a4\u30f3\u30bf\u30fc\u30cd\u30c3\u30c8": 42398, "\u30de\u30ec\u30fc": 7771, "/": 391691, "\u30a4\u30f3\u30c9\u30cd\u30b7\u30a2": 14893, "\u6b21\u3044": 23012, "8": 669153, "\u3063": 25615, "\u3093": 411842, "\u6bcd\u97f3": 9909, "\u958b": 40924, "\u7bc0": 58062, "\u6027\u683c": 31200, "\u5f37\u304f": 41530, "\u30e2\u30fc": 29060, "\u30a2\u30af\u30bb\u30f3\u30c8": 6183, "\u9ad8\u4f4e": 2328, "\u5143\u6765": 5501, "\u53e4\u3044": 32541, "\u5927\u548c": 22351, "\u539f\u5247": 28624, "\u4fee": 31031, "##\u98fe": 8654, "\u8ff0": 3037, "##\u9806": 12360, "\u540d\u8a5e": 13758, "\u683c": 23177, "\u8a9e\u5c3e": 3258, "\u5f8c\u308d": 15961, "\u4ed8\u3051\u52a0\u3048": 3424, "SO": 12613, "##V": 66063, "\u578b": 264196, "\u53e4\u6765": 5283, "\u548c": 79935, "\u5916\u6765": 6947, "\u6df7": 16075, "##\u3056": 18751, "##\u7a2e": 27513, "##\u8aad\u307f": 2520, "\u610f": 25203, "##\u6587": 65329, "\u6e21\u6765": 2891, "\u6d3e\u751f": 17197, "\u904e": 31036, "\u534a\u6570": 11167, "\u7d19": 53073, "\u304b\u307f": 9363, "\u7d75": 50733, "\u753b": 51272, "\u3091": 844, "\u5f85\u9047": 4887, "\u656c\u8a9e": 3968, "\u53d9": 16382, "##\u8ff0": 6840, "\u4eba\u7269": 188566, "\u5fae\u5999": 4560, "\u591a\u69d8": 27623, "\u3068\u308a\u308f\u3051": 9522, "\u7409\u7403": 14077, "\u8457\u3057\u3044": 4108, "\u8fd1\u4e16": 10967, "\u4e2d\u671f": 20075, "\u4eac\u90fd": 113291, "\u5730\u4f4d": 35122, "\u5f8c\u671f": 36185, "\u6c5f\u6238": 97844, "\u9ad8\u3081": 10808, "\u660e\u6cbb": 199174, "\u6771\u4eac": 402739, "\u5c71": 232447, "##\u306e": 64709, "##\u624b": 65239, "\u4e2d\u6d41": 3924, "\u968e\u7d1a": 35243, "\u57fa\u76e4": 15813, "\u8907\u96d1": 24922, "\u542b\u3080": 100957, "\u8a13": 7314, "\u5e73": 82432, "##\u4eee\u540d": 4241, "\u7247": 30648, "\u5e38": 61555, "\u7d44\u307f\u5408\u308f\u305b": 26647, "\u533b\u5b66": 41267, "\u79d1\u5b66": 100367, "\u6a2a": 62007, "\u5b50\u97f3": 5171, "\u97f3\u7bc0": 3957, "\u5206\u304b\u308a": 21131, "\u3084\u3059\u3044": 37738, "\u76f4": 82585, "\u62d7": 407, "\u7d44\u307f\u7acb\u3066": 6596, "\u4f34\u3063": 18734, "\u5206\u5e03": 42354, "\u8abf\u67fb": 141852, "\u554f\u308f": 17845, "\u3044\u307e\u3060": 4747, "\u57fa\u3065\u3044": 28875, "\u306a\u3044\u3057": 15305, "\u5b9a\u3081\u308b": 11795, "\u8a18\u3055": 25984, "\u88c1\u5224": 81249, "\u6240": 441566, "\u540c\u6cd5": 3999, "74": 18100, "\u6761": 77216, "\u6d3b\u5b57": 2539, "\u632f\u8208": 18531, "\u5f53\u7136": 11225, "\u6620\u753b": 337129, "\u653e\u9001": 462155, "\u6f2b\u753b": 97825, "\u65b0\u805e": 88018, "\u30c9\u30e9\u30de": 113473, "\u8a33": 32273, "\u5b57\u5e55": 6265, "\u5f53\u3066": 12357, "\u53d7\u3051": 328057, "\u4f5c\u6210": 47304, "\u539f": 64430, "\u5411\u3051": 124299, "\u8ad6\u6587": 33320, "\u3082\u3057\u304f\u306f": 39541, "\u5728\u4f4f": 18182, "\u9650\u3089": 26403, "\u5bfe\u8c61": 87711, "\u4e2d\u5357": 3469, "##\u7c73": 18996, "\u30da\u30eb\u30fc": 8366, "\u30d6\u30e9\u30b8\u30eb": 34332, "\u30dc\u30ea\u30d3\u30a2": 3625, "\u30c9\u30df\u30cb\u30ab": 4109, "\u30d1\u30e9": 22868, "##\u30b0\u30a2\u30a4": 3067, "\u30cf\u30ef\u30a4": 16865, "\u79fb\u6c11": 18848, "\u4e16": 214459, "\u4e16\u4ee3": 37121, "\u4e0b\u308b": 3098, "\u3057\u305f\u304c\u3063": 18427, "\u5b9f": 97409, "##\u60c5": 18043, "\u592a\u5e73": 52856, "\u6d0b": 99607, "\u7d42\u7d50": 14635, "\u671d\u9bae": 64344, "\u7dcf\u7763": 19803, "\u5e9c": 125090, "\u534a\u5cf6": 39931, "\u6e80\u5dde": 13728, "\u6a3a\u592a": 5671, "\u5e81": 58554, "\u30b5\u30cf": 5578, "##\u30ea\u30f3": 54494, "\u5357\u6d0b": 2970, "##\u30de\u30ea\u30a2": 1136, "##\u30ca": 197112, "\u30d1\u30e9\u30aa": 2647, "\u30de\u30fc\u30b7\u30e3\u30eb": 6147, "\u30df\u30af\u30ed": 4205, "##\u30cd\u30b7\u30a2": 4153, "\u8a18\u61b6": 22994, "\u8a71\u3059": 20641, "\u5148\u4f4f": 9689, "\u6c11": 52777, "\u5b9c": 6058, "##\u862d": 4750, "\u30bf\u30a4\u30e4": 12465, "\u30eb": 96002, "##\u30a6\u30eb": 3549, "\u7d4c\u7def": 29728, "\u8c61\u5fb4": 20872, "\u7559\u307e\u3063": 10233, "2015": 139953, "365": 2793, "95": 19240, "75": 28345, "\u5927\u97d3": 14696, "36": 43251, "22": 163714, "\u30a2\u30b8\u30a2": 80350, "\u6771\u5357": 11829, "\u5272": 39159, "137": 6701, "\u53ca\u3093": 8200, "16": 208203, "\u4e0a\u3063": 3912, "\u672c\u571f": 15498, "\u7409": 1177, "##\u307d": 6372, "##\u3046": 112645, "\u660e\u3089\u304b": 53526, "\u89e3\u660e": 6558, "##\u9014": 4932, "\u7acb\u3063": 19113, "\u7dcf\u5408": 82850, "\u7d50\u8ad6": 13033, "\u4eee\u8aac": 9378, "\u7dcf": 136852, "\u5f97\u308b": 41937, "\u81f3\u3063": 27737, "\u30a2\u30eb\u30bf": 4674, "##\u30a4": 192739, "\u8af8\u8a9e": 3542, "\u672b": 105862, "\u6ce8\u76ee": 37666, "\u6839\u62e0": 16737, "r": 41963, "\u7acb\u305f": 6285, "\u4e00\u7a2e": 32868, "\u8abf\u548c": 5863, "\u4e92\u3044": 29052, "\u89aa\u65cf": 8231, "\u3082\u305f": 4360, "\u5357\u65b9": 12170, "\u30aa\u30fc\u30b9": 4539, "##\u30c8\u30ed": 20393, "\u6307\u6458": 51075, "##\u4f8b": 12132, "\u5341\u5206": 36262, "\u63a8\u5b9a": 32827, "\u30c9\u30e9": 16970, "\u8a8d\u3081\u308b": 12258, "\u5927\u91ce": 11226, "\u664b": 12178, "\u30bf\u30df\u30eb": 2304, "\u5531\u3048\u308b": 3271, "\u6bd4\u8f03": 73967, "#": 35492, "\u30a2\u30a4\u30cc": 8373, "\u62b1": 4576, "##\u5408": 32882, "\u9589": 18390, "\u76f8\u9055": 7987, "\u5145\u5206": 5112, "\u3068\u3053\u308d": 143688, "\u95a2\u9023": 93508, "\u4e4f\u3057\u3044": 3762, "\u304b\u306a\u308a": 36359, "\u4e0a\u8ff0": 9514, "\u9ad8\u53e5\u9e97": 4358, "\u3044\u308f": 50665, "\u5b9f\u614b": 7532, "\u5206\u304b\u3063": 16552, "\u73fe": 146063, "\u6642\u70b9": 93085, "\u304c\u305f\u3044": 3234, "\u30ec\u30d7": 2694, "##\u30c1\u30e3": 30431, "\u904e\u53bb": 67486, "\u7591": 8089, "##\u4f3c": 5028, "\u7bc4": 9016, "##\u7587": 2289, "\u53ce": 16466, "\u5217\u5cf6": 8706, "\u738b\u56fd": 60585, "\u8a00": 10258, "\u540c\u3058\u304f": 58188, "\u307e\u3068\u3081": 25379, "\u610f\u898b": 41090, "\u898b\u89e3": 18141, "\u5206\u304b\u308c\u308b": 7145, "\u9805\u76ee": 26736, "\u672c": 393052, "\u307d": 8045, "\u6349\u3048": 9281, "\u307e\u3068\u3081\u308b": 4854, "\u306a\u3089": 220148, "\u62cd": 5981, "\u79f0\u3057": 25359, "##\u4f53": 47838, "\u4eee\u540d": 5707, "\u5373": 12434, "\u5358": 41458, "\u5f8c\u7d9a": 4890, "\u81ea\u3089": 73925, "\u7d42\u308f\u3063": 51385, "\u3086\u3048": 12992, "\u7279\u6b8a": 37928, "111": 9393, "\u7a0b\u5ea6": 81458, "\u6570\u3048": 14198, "\u5c11\u3057": 47599, "\u305a\u3064": 34353, "##\u884c": 59989, "##\u4e2d": 64801, "\u9f3b": 14658, "\u6fc1": 3310, "\u5f01": 28723, "##\u5225": 28488, "\u63d0\u4f9b": 90911, "\u5358\u306a\u308b": 8421, "\u7570": 37513, "\u305d\u3053": 117717, "103": 9450, "\u30b7\u30a7": 27922, "\u30c1\u30a7": 24891, "\u30c4\u30a1": 7011, "##\u30fb": 40451, "##\u30c4\u30a7": 16106, "##\u30c4\u30a9": 7801, "\u30d5\u30a1": 40372, "##\u30fb\u30d5\u30a3": 3484, "##\u30fb\u30d5\u30a7": 3804, "##\u30fb\u30d5\u30a9": 3381, "\u542b\u3081\u308b": 6801, "\u5909\u308f\u3063": 23480, "\u30f4\u30a1": 22235, "##\u30fb\u30f4\u30a3": 4729, "##\u30f4": 52402, "##\u30f4\u30a7": 31669, "##\u30f4\u30a9": 24643, "\u30d0": 46216, "\u5897\u3048\u308b": 7170, "\u4e94\u5341": 9610, "\u307f\u308b": 16244, "\u5c11\u306a\u304b\u3089": 3386, "\u5e73\u5b89": 20391, "\u3055\u304b\u306e\u307c": 3932, "\u3042": 59862, "\u3046": 69719, "\u3048": 56345, "\u304a": 367832, "\u8868\u3055": 9594, "\u8fd1\u3044": 55025, "\u0308": 78, "##\u820c": 2733, "\u5bc4\u308a": 12680, "\u5f31": 20341, "##\u3081": 137599, "\u5186": 158733, "##\u5507": 1958, "\u5f37\u3081": 7380, "IP": 11873, "##A": 121395, "\u820c": 6738, "\u4e2d\u9593": 26622, "\u5f53\u305f\u308b": 21562, "\u534a": 77459, "##\u72ed": 3863, "##\u5e83": 12395, "##\u307e\u308a": 25950, "\u5f35": 32396, "\u5507": 3366, "\u30cb\u30e5\u30fc": 64216, "##\u30c8\u30e9": 31691, "\u307b\u3093": 16660, "\u50c5\u304b": 10816, "\u7a81\u304d\u51fa\u3057": 1768, "\u5fae": 14654, "\u72ed": 12042, "\u9023": 45732, "##\u95a2": 11445, "\u73fe\u884c": 15976, "\u30ab\u30c6\u30b4\u30ea\u30fc": 6638, "\u5165\u308c": 55577, "\u6cd5\u5247": 11813, "\u9069": 14021, "\u878d\u5408": 12815, "\u672a\u3060": 8734, "\u026f": 25, "\u03b2": 9829, "\u5f37\u8abf": 14836, "\u4f7f\u3046": 50857, "\u672c\u6765": 35842, "i": 56286, "u": 27755, "\u6e1b": 25791, "##\u8870": 4763, "\u6b8b\u5b58": 7683, "\u304b\u3064": 44990, "\u3084\u3084": 26093, "\u6709\u3059\u308b": 35969, "\u5916\u308c\u308b": 2296, "\u9650\u308a": 42130, "\u7a00": 12290, "\u8fd1\u3065\u304f": 4358, "\u5965": 35863, "\u4e38": 69651, "\u30b3\u30fc\u30d2\u30fc": 14625, "\u3072\u3044": 3664, "##\u3072": 16794, "\u30fc": 101232, "\u9577": 406266, "\u9ce5": 30239, "\u30c8\u30ea": 37417, "\u30c8\u30fc": 24577, "##\u30ea": 187981, "\u6709\u7121": 6422, "\u7279\u5b9a": 53683, "\u76f8\u5f53": 41933, "\u3048\u3044": 7973, "\u304a\u3046": 9632, "\u304a\u304a": 16752, "\u3051\u3044": 22481, "\u982d": 81400, "\u4ed8\u3044": 18108, "\u3059\u306a\u308f\u3061": 33412, "\u885b\u661f": 29254, "\u5fdc\u7b54": 5711, "\u653f\u515a": 26711, "\u30a8\u30fc": 15854, "##\u30bb\u30fc": 11459, "\u30aa\u30fc\u30c8": 15821, "\u30bb\u30fc": 8233, "##\u30c8\u30fc": 21216, "\u4e5d\u5dde": 49936, "\u56db\u56fd": 20024, "\u7d00\u4f0a": 6405, "\u601d\u3046": 49325, "\u554f": 8663, "\u91cd": 124423, "\u8edf": 11231, "##\u9aa8": 22218, "\u9b5a": 36243, "\u30a8\u30a4": 27422, "\u4e01\u5be7": 6577, "\u631f\u307e": 5434, "\u30a4": 48729, "\u30a6": 47651, "\u3067\u3059": 643088, "\u307e\u3059": 661206, "\u83ca": 13498, "\u6df1\u3044": 24215, "\u653e\u3064": 6151, "\u79cb": 57073, "\u6838": 50541, "\u901f": 21334, "\u8fd1\u757f": 13599, "\u8d77\u3053\u3089": 2853, "\u8fd1\u4f3c": 5444, "\u4e3b\u6d41": 16227, "\u5b66\u8aac": 3565, "\u307e": 86746, "\u308f": 39202, "\u3056": 12630, "\u3071": 8460, "\u884c": 60324, "\u30e4": 48896, "\u5fdc\u3058": 33897, "\u89e3\u91c8": 26126, "\u30ca": 76155, "n": 67070, "##\u305d\u3046": 24698, "\u69d8\u76f8": 3821, "\u5448\u3059\u308b": 2575, "\u5f8c\u8ff0": 32633, "\u53e3\u84cb": 2009, "\u7701\u7565": 11466, "?": 255912, "\u73fe\u308c\u308b": 18085, "\u306f\u3058": 5037, "\u5171\u6709": 17601, "\u7a7a\u6c17": 26916, "##\u9053": 75875, "\u72ed\u3044": 9966, "\u63a5\u8fd1": 15263, "\u8a00\u3048": 23280, "\u4e3b\u306a": 64954, "\u8abf": 24272, "\u914d\u5217": 11558, "\u7279\u5225": 101868, "\u30a6\u30a3": 31621, "\u30a6\u30a7": 18600, "\u30a6\u30a9": 12964, "\u30a6\u30a4": 5355, "\u30a6\u30a8": 7189, "##\u30aa": 125646, "\u7834\u88c2": 2622, "\u4ee3\u308f\u308a": 43817, "\u7834": 15285, "##\u64e6": 480, "\u624b\u8853": 20061, "\u3057\u3085": 15041, "##\u3058": 94907, "##\u3085": 5734, "##\u3064": 69599, "\u3062": 1883, "\u3065": 8736, "\u3058": 50366, "\u5e30": 31585, "\u72ec\u7279": 16862, "\u97f3\u8272": 3652, "\u786c": 10495, "\u8fd1\u3065": 4276, "##\u3051\u308b": 17062, "\u5177\u5408": 7740, "\u6765\u308b": 22146, "##\u6bb5": 16329, "\u3083": 1303, "\u3085": 2197, "\u3087": 5431, "##\u3083": 16225, "\u304d\u3087": 5128, "\u8a18\u3059": 9338, "\u3047": 1214, "\u3061": 47790, "\u30b9": 74846, "\u30a3": 4080, "\u30c7\u30a3": 55446, "\u30ba": 25268, "##\u30a3": 70888, "\u3072": 45983, "\u308a": 28436, "##\u304d": 172966, "\u3075": 35350, "\u2192": 82670, "\u540d\u6b8b": 5065, "\u5948\u826f": 34823, "\u95a2\u3057": 57477, "\u30cf": 104803, "\u30d1": 68590, "\u73fe\u308c": 34827, "##\u6fc1": 1919, "b": 113979, "\u5909\u308f\u308a": 12294, "##\u9580": 46916, "\u9650": 11207, "h": 56542, "\u5909\u308f\u308b": 11830, "##\u611f": 19858, "\u5408\u7406": 9181, "\u8868\u3057": 16766, "\u3046\u308b": 18774, "\u30a1": 3702, "\u30a7": 3409, "\u30a9": 494, "\u6dfb\u3048": 5616, "\u30c4": 39571, "\u304a\u3068": 6913, "##\u3041": 15319, "\u30c4\u30a3": 3861, "\u30c1": 52913, "\u30c8\u30a5": 22932, "\u30c9\u30a5": 22653, "\u4fc3": 2002, "\u64a5": 1375, "##\u7bc0": 17457, "\u4f75\u305b": 13575, "\u5358\u72ec": 30511, "\u9589\u9396": 25362, "##\u672b": 11471, "\u30d4\u30c3\u30c1": 8326, "\u4e0a\u4e0b": 16989, "\u6c7a\u307e\u3063": 20973, "\u5c11\u306a\u304f": 51360, "\u96e8": 46579, "\u98f4": 1939, "\u30a2": 80342, "\\": 21646, "\u30e1": 57512, "##\u9ad8": 37417, "##\u677f": 21405, "\u4e0a\u6607": 26433, "\u4e0b\u964d": 3771, "\u6c7a\u307e\u308b": 5884, "\u7bb8": 2445, "\u6a4b": 97236, "\u7aef": 27788, "\u4ed8\u304f": 6395, "\u30ac": 74708, "\u4e0b\u304c\u308b": 3144, "\u5834\u6240": 134876, "\u76f4\u5f8c": 45039, "\u4e0b\u304c\u308a": 2577, "##\u76ee": 47712, "\u6edd": 19565, "\u3044\u3044": 146523, "\u4e0b\u3052": 6454, "\u7b87\u6240": 23685, "\u4e0b\u304c\u3063": 3967, "\u4e0a\u304c\u308b": 7518, "\u25cb": 28599, "\u306a\u3057": 35752, "##\u6570": 56121, "\u5c3e": 34179, "\u4e2d\u9ad8": 5199, "\u8d77": 17342, "##\u4f0f": 6025, "##\u6838": 5210, "\u547c\u3093": 27895, "\u9664\u304f": 31788, "\u304b\u3044": 17842, "\u3053": 61094, "##\u305f": 68302, "\u533a": 301515, "##\u5207\u3089": 4373, "##\u307e": 83727, "##\u3068": 52864, "\u53e5": 12059, "\u59cb\u3081": 132831, "##\u8abf": 21234, "\u5207\u308c": 13754, "\u3084\u3059\u304f": 16119, "\u62c5\u3063": 13243, "\u56fa\u5b9a": 29750, "\u305f\u307e\u3054": 1998, "\u306a\u304f\u306a\u308b": 4002, "\u6700\u521d": 161042, "\u5e73\u3089": 2808, "\u4f4e": 55140, "##\u3054": 37649, "\u540c\u6642": 101296, "\u79c1": 440809, "\u8aad\u3080": 16558, "re": 36177, "##ad": 36771, "##ook": 5199, "SV": 3502, "##O": 83108, "\u52d5\u8a5e": 10339, "\u3044\u3048": 25516, "\u5fc5\u9808": 7201, "\u5f62\u5bb9": 7006, "\u8a5e": 14194, "S": 102694, "\u2010": 5773, "V": 99368, "\u8003\u3048\u308b": 31186, "\u9069\u5f53": 6573, "\u306a\u3059": 8284, "##\u578b": 23183, "##C": 147222, "\u5206\u3051\u308b": 5110, "\u672c\u8cea": 8051, "\u521d": 313000, "##\u5b66": 40302, "\u8abf\u5b50": 7184, "\u4f5c": 142067, "\u984c": 15288, "##\u69cb": 5707, "\u9020": 28662, "##\u90e8": 81342, "\u63a1": 12847, "\u304d\u308f\u3081\u3066": 5156, "\u4e3b\u984c": 32229, "\u660e\u793a": 4682, "\u4e09\u4e0a": 2126, "\u7ae0": 46422, "ar": 18687, "##alk": 3382, "##ing": 87857, "ab": 7677, "##out": 8562, "\u6df7\u540c": 7204, "\u52d5\u4f5c": 24079, "\u4f5c\u7528": 44379, "\u4e3b\u4f53": 20595, "\u898b\u3048\u308b": 27686, "\u5ba2": 59821, "\u8c61": 10169, "\u793a\u3057": 52194, "\u517c\u306d\u308b": 3003, "\u5f79\u76ee": 5125, "\u672a\u77e5": 4320, "\u65e2": 14483, "##\u77e5": 29075, "\u524d\u8005": 11964, "\u4f50\u85e4": 26328, "\u5f8c\u8005": 17728, "\u8ab0": 49805, "\u7530\u4e2d": 30087, "\u7591\u554f": 16141, "\u512a\u52e2": 5574, "\u30d9\u30c8\u30ca\u30e0": 25665, "\u30bf": 65082, "##\u30ed\u30b0": 3330, "\u5ec3\u6b62": 86866, "\u9577\u3044": 48551, "\u6349\u3048\u308b": 3134, "\u305d\u3082\u305d\u3082": 7785, "\u6210\u308a\u7acb\u3064": 5048, "\u3053\u3053": 113902, "\u3084\u3081": 12941, "\u63d0\u6848": 41653, "\u7532": 26814, "\u4e59": 10279, "\u4e19": 2334, "\u30f2": 6424, "\u7d39\u4ecb": 70378, "\u512a": 19533, "##\u52a3": 2607, "\u88dc\u8db3": 2767, "\u88dc": 22271, "\u4eba\u79f0": 5058, "\u547c\u5fdc": 3419, "\u5f93\u3048": 3290, "\u3046\u307e\u304f": 15825, "##\u8db3": 24725, "\u898b\u306a\u3057": 3377, "\u4f5c\u696d": 48240, "\u6709\u7528": 5523, "\u9805": 38155, "##\u306a\u3059": 3600, "\u751f\u6210": 27928, "\u9234\u6728": 30004, "##\u5e78": 16196, "\u7d71": 11415, "\u5b66\u6d3e": 5396, "\u68ee": 61145, "##\u654f": 5865, "\u9aa8": 29382, "##\u5b50": 225627, "\u6210\u5206": 18257, "\u4ed8\u3051\u52a0": 71, "##\u308f\u3063": 18753, "\u6210\u308a": 9703, "##\u7acb\u305f": 4077, "##\u7528": 38326, "\u63a5\u7d9a": 44750, "\u4e94": 124777, "\u8f09\u305b": 9820, "\u56f3\u66f8": 61980, "\u56db": 132963, "\u793e": 253031, "\u300c-": 1914, "\u90e8": 581096, "\u6700\u5927": 105422, "\u5f93\u3044": 10235, "\u679c\u305f\u3059": 29582, "\u964d\u308b": 5157, "\u5b66\u751f": 78109, "##\u7acb\u3063": 10413, "##\u5f79": 27765, "\u91cd\u8996": 21554, "\u7528": 241968, "\u4fc2\u308b": 4334, "\u81ea\u7acb": 6886, "\u5144": 51725, "\u5f1f": 53666, "\u7b97": 8550, "\u6559\u3048\u308b": 7531, "\u304b\u304b\u308b": 20793, "##\u3063\u3061": 9918, "\u71b1\u5fc3": 10015, "\u6b20\u304f": 2798, "\u4f1d": 38162, "\u6b20\u3044": 3430, "\u652f\u969c": 4354, "\u6839": 42623, "##\u5e79": 7727, "\u88dc\u5145": 5242, "\u9650\u3063": 3901, "\u52d5\u304f": 6917, "\u6b69\u9053": 7210, "\u8d64\u3044": 15240, "\u9aea": 13282, "##\u98fe\u308a": 2026, "\u77b3": 5140, "\u5eb7": 32127, "##\u4e4b": 38541, "\u9ad8\u6a4b": 22575, "\u592a\u90ce": 14579, "\u6cf0": 24034, "\u4ed8\u4e0e": 10467, "\u3069\u3093\u306a": 22728, "\u9650\u5b9a": 61024, "\u75b2\u308c": 14520, "\u52d5\u3051": 2101, "\u8cb7\u3044": 26589, "\u305f\u3044": 203927, "\u91d1": 216232, "\u3042\u3068": 36683, "\u8ad6\u7406": 13962, "\u6674\u308c": 6702, "\u30d4\u30af": 8359, "##\u30cb\u30c3\u30af": 13211, "\u884c\u3053\u3046": 5236, "\u541b": 39727, "\u82e5\u3044": 25887, "\u306a\u305c": 27510, "\u7d76\u671b": 5268, "\u3064\u306a\u3050": 4099, "\u54c1": 113093, "\u306f\u3044": 10660, "\u307e\u3057": 499571, "\u59c9": 25675, "\u3055\u3093": 180876, "\u884c\u304f": 58113, "\u65b0\u9bae": 3855, "\u547d": 45874, "\u4fc2": 15305, "##\u53d7\u3051": 3419, "\u611f\u52d5": 9133, "\u547c\u3073\u304b\u3051": 10908, "\u63d0\u793a": 15680, "\u8a72\u5f53": 17171, "\u30df\u30ab": 4030, "\u30ea\u30f3\u30b4": 5101, "\u8cb7\u3046": 8945, "\u7435\u7436": 5079, "\u6e56": 67937, "\u51ac": 42756, "\u51b7": 18429, "##\u305f\u304f": 5820, "\u53b3\u3057\u3044": 16163, "\u307e\u3068\u307e\u3063": 2846, "\u50cd\u304d": 20244, "go": 15608, "##ib": 15194, "##ra": 52405, "##ry": 40998, "##\u7f6e": 12548, "\u9928": 264886, "\u3069\u3061\u3089": 33500, "\u72b6\u614b": 124641, "\u52a0\u308f\u308b": 7520, "\u8a8d\u3081": 85936, "\u5de5\u85e4": 4608, "\u771f\u7531": 1271, "##\u7f8e": 52032, "\u4e8b\u67c4": 3199, "##\u7acb\u3061": 16416, "\u53c2\u52a0": 216272, "\u88dc\u3046": 3554, "\u72b6\u6cc1": 89866, "\u660e\u65e5": 22819, "\u51fa\u6765\u4e8b": 18535, "##\u69d8": 10006, "\u539f\u56e0": 55401, "\u4f53\u529b": 6803, "\u5411\u4e0a": 41299, "\u542b\u3093": 13327, "\u5c5e\u6027": 6183, "\u3068\u308a": 24168, "\u984d": 29968, "##\u7e01": 17292, "\u7f6e\u304b": 46993, "\u4e00\u81f4": 22516, "\u3064\u306d": 2643, "\u3050": 19698, "##\u3050": 32196, "\u9032\u3080": 22737, "\u767d\u3044": 15645, "\u96f2": 25392, "\u9577\u5927": 2946, "\u77ed\u6b4c": 3931, "\u5192\u982d": 11295, "\u6cd5\u5f8b": 51646, "\u7ffb\u8a33": 35009, "\u631f\u307f": 3651, "\u53d6\u308a": 62845, "\u306b\u304f\u304f": 4896, "\u4e00\u7bc0": 2336, "\u308f\u308c": 2241, "\u4fe1": 62716, "##\u305a\u308b": 10468, "\u3044\u3065": 1538, "\u4ecb": 11979, "##\u5728": 9498, "\u8aad\u307f": 43482, "\u6163\u308c": 8935, "\u306a\u3051\u308c": 91150, "\u82f1\u8a33": 2921, "We": 14981, "##old": 3996, "##(": 24642, "##\u5408\u3046": 14395, "\u5bfe\u7167": 10722, "\u888b": 9917, "##\u5c0f\u8def": 4820, "\u99ac": 105805, "\u7d0d": 12488, "##\u5c4b": 61117, "\u305d\u3070": 11234, "\u8d70\u3089": 3405, "##\u3055": 139724, "##ors": 4341, "##ace": 12145, "##ast": 12139, "##n": 323642, "##\u3089\u304f": 4217, "\u5177\u4f53": 26057, "\u82f1\u6587": 7394, "\u9014\u4e2d": 57884, "\u8aad\u3093": 24502, "\u611f\u3058": 63153, "\u884c\u304d": 82420, "##\u7740\u304f": 3922, "\u5019\u88dc": 75291, "\u51fa": 162423, "\u3010": 13741, "\u5d29\u308c": 6513, "\u3011": 13766, "\u7d20\u65e9\u304f": 3072, "\u8d70\u308a": 13477, "##\u629c\u3051": 7903, "\u5012\u308c": 11111, "\u691c\u8a0e": 34090, "\u72ac": 36463, "\u306a\u308c": 14026, "\u526f": 97475, "\u3082\u3063\u3071\u3089": 4182, "\u5bfe": 91533, "##\u4f5c": 38327, "\u4e8b": 221812, "##\u7269": 68242, "\u69d8\u5b50": 26438, "\u3044\u304f\u3089": 6804, "\u6319": 5340, "##\u304c\u308a": 11136, "\u6a4b\u672c": 11387, "##\u5409": 44821, "\u3042\u305f\u308a": 37527, "\u8e0f\u307f": 11344, "\u592a\u967d": 44421, "\u8f1d\u304f": 4203, "\u304e": 22373, "##\u3089\u304e": 3431, "##\u3089": 170503, "\u4ed8\u5c5e": 22010, "\u63a5": 17728, "##\u8f9e": 8029, "\u6b21\u3005": 18114, "\u6d3b\u7528": 23753, "\u547d\u4ee4": 38519, "\u7d42\u6b62": 2773, "##\u679d": 14493, "\u8aa0": 18649, "##\u8a18": 29665, "\u5426\u5b9a": 29884, "\u3053\u3068\u3070": 3694, "\u985e": 95842, "##\u306b": 22583, "##\u3092": 610, "##\u306f": 32910, "##\u3063\u3071": 4521, "\u591a\u304b\u3063": 31032, "\u6307\u3059": 41414, "\u7740\u76ee": 4348, "\u6625": 77349, "\u8cb7\u3063": 20325, "\u3084\u308b": 14300, "\u592a\u5b57": 10580, "\u7a2e\u3005": 2652, "\u7d42\u308f\u308a": 33009, "\u8a60": 5593, "##\u5606": 2658, "\u7981\u6b62": 42095, "\u6c17\u5206": 10019, "\u610f\u56f3": 19732, "\u7d42": 17270, "\u304f\u3063": 2034, "##\u3064\u304d": 11184, "\u5168\u90e8": 21429, "\u3051\u308c\u3069": 17694, "\u4e26\u3079": 10046, "##\u7acb\u3066\u308b": 2319, "\u3060\u308a": 11088, "\u6c17": 91151, "\u5f15\u304b": 3471, "\u6ce3": 4023, "##\u304b": 114695, "\u82b1": 103538, "\u7b11\u3063": 6133, "##\u3042": 39212, "\u51fa\u304b\u3051": 8261, "\u3059\u3050": 65792, "\u614b": 2451, "##\u8eab": 23643, "\u4f7f\u5f79": 1601, "\u3069": 34377, "\u30f4\u30a9": 9813, "##\u30a4\u30b9": 17329, "\u6975": 27519, "\u80af\u5b9a": 6320, "\u6c7a\u5b9a": 126488, "\u30dd": 45503, "##\u30e9\u30ea": 3515, "##\u30c6\u30a3": 119496, "##\u5236": 13797, "\u30c6\u30f3": 18700, "\u76f8": 74393, "\u30a2\u30b9": 25611, "##\u30da\u30af\u30c8": 2298, "\u63a8": 12527, "##\u91cf": 37858, "\u65ad": 28731, "##\u5b9a": 25525, "\u30e0\u30fc\u30c9": 2130, "\u5c71\u7530": 24073, "\u5b5d": 28080, "##\u96c4": 46473, "##\u51fa": 55343, "\u8907": 11779, "##\u5c3e": 41667, "\u3089\u3057\u3044": 18766, "\u3080\u3059": 2441, "##\u3073": 46570, "\u30b3": 66222, "##\u30d4\u30e5": 4047, "\u81ea\u7531": 105904, "\u5185\u5bb9": 113173, "\u3057\u304b\u3082": 13874, "\u6b63\u3057\u3044": 16831, "\u5178\u578b": 12727, "\u3042\u304f\u307e\u3067": 13146, "\u6c34": 177504, "\u5230\u9054": 18264, "\u53d7": 24714, "##\u52d5": 25677, "\u5148\u751f": 53755, "\u307b": 18470, "\u6240\u5728": 52532, "\u4eca": 185876, "##\u4e0a": 64147, "\u5929\u7687": 79992, "\u6025": 42270, "\u8d70\u3063": 12524, "\u62c5\u3046": 10484, "\u8131\u843d": 4498, "\u6587\u8108": 5743, "\u52a9\u3051": 25324, "\u898b\u306a\u3055": 9655, "\u304f\u3058": 5008, "\u7236": 138689, "\u98df\u3079": 62346, "\u3057\u307e\u3063": 80402, "\u3061\u3083": 24014, "\u629c\u304b": 2698, "\u8a00\u3063": 67519, "\u8aa4\u89e3": 8268, "\u30c1\u30e7\u30b3\u30ec\u30fc\u30c8": 6304, "\u907f\u3051": 13748, "\u7f6e\u304d": 17646, "##\u63db": 7974, "##\u308f\u308b": 10847, "\u7a7a": 63383, "\u9752\u3044": 8032, "\u4ed8\u304d": 40977, "\u8d70\u308b": 16710, "\u3059\u308c": 43940, "##\u58c7": 10624, "\u90e8\u5c4b": 43143, "\u304b\u304b\u308f\u3089": 28986, "\u5370\u8c61": 21444, "\u7acb\u3064": 14149, "\u5206\u304b\u308b": 12329, "##\u7d9a\u304d": 2627, "\u7dcf\u79f0": 16220, "\u6319\u3052\u308b": 16494, "\u9078\u624b": 351947, "\u7403": 33565, "\u6253\u3064": 5045, "\u6d88\u9632": 23385, "\u58eb": 96250, "\u52c7\u6562": 2755, "\u751f\u304d\u308b": 8264, "\u7a81\u5165": 11681, "\u6253\u3061": 32154, "\u4eee\u5b9a": 7701, "\u5df2": 723, "\u6253": 68904, "##\u3066": 37738, "\u6253\u3063": 7570, "\u7a3d\u53e4": 6753, "\u5f37": 44512, "\u98a8": 92041, "##\u59ff": 1576, "##\u4f1d": 14404, "\u3054\u3068\u304f": 2269, "\u6bb5": 54351, "##\u5909": 11931, "\u30b5": 59790, "\u91cf": 100833, "##\u6e21\u3057": 9147, "\u8c4a\u5bcc": 13782, "\u8ca7": 8695, "##\u5f31": 6567, "##\u3064\u3051\u308b": 6483, "##\u6982": 1938, "##\u8a55": 11215, "\u8a55\u5224": 10549, "##\u7248": 13769, "##\u5be1": 439, "\u2015": 23011, "\u7cbe\u795e": 49921, "0": 223243, "%": 204129, "18": 205520, "\u305f\u3060\u3061\u306b": 2747, "\u308f\u305f": 2263, "\u308f\u305f\u3057": 34966, "\u3042\u305f": 11778, "\u307c\u304f": 12074, "\u81ea\u5206": 190339, "\u6211\u3005": 12539, "\u3042\u306a\u305f": 39102, "\u3042\u3093": 15970, "\u304a\u307e": 2078, "\u304d\u307f": 4734, "\u308f\u3057": 2214, "\u6211\u304c": 7327, "##\u8f29": 973, "\u69d8": 54139, "\u308f\u3093": 2864, "\u6715": 624, "##\u3061": 65553, "##\u307e\u3048": 3695, "##\u751f": 84123, "##\u304c\u3057": 7126, "\u62d9": 1184, "##\u8005": 28875, "\u8cb4": 28615, "\u304a\u306e": 1831, "\u5b85": 8024, "##\u306c": 5905, "##\u541b": 5896, "##\u5144": 5620, "\u8db3": 57032, "##\u516c": 14853, "##\u5973": 21499, "##\u6bbf": 10966, "##\u65b9": 31422, "\u898b\u3064": 5504, "##\u304b\u308b": 11644, "you": 47853, "j": 19998, "\"\u3001": 18706, "##u": 108236, "v": 28565, "##ous": 6221, "##ch": 44174, "du": 5523, "Si": 16568, "##hr": 4274, "\u30ec": 70990, "\u4f46\u3057": 10126, "\u3082\u3068": 62860, "\u8ee2\u7528": 9447, "\u5f7c\u5973": 127458, "\u6b73": 251601, "\u656c\u610f": 4099, "##\u6642": 19023, "\u3044\u3089": 7911, "##\u3057\u3083": 12234, "\u30aa": 74519, "##\u30ce": 146173, "##\u30da": 37475, "\u64ec": 6264, "\u8033": 19219, "\u805e\u3053\u3048\u308b": 3609, "\u5199\u3057": 2818, "\u64ec\u614b": 1440, "\u805e\u3053\u3048": 7881, "\u7acb\u3066\u308b": 5002, "##\u304e": 66747, "\u3052": 14332, "\u306b\u3083": 2069, "\u304c\u305f": 7816, "##\u304c\u305f": 5929, "\u304c\u3093": 18289, "\u3070\u3093": 7457, "##\u3070\u3093": 5449, "\u3069\u3093\u3069\u3093": 5355, "##\u3054\u3068": 5542, "##\u308d": 44778, "##\u3087": 12146, "\u3059\u3044": 7671, "\u308f\u304f": 3033, "##\u308f": 79677, "\u732b": 21683, "\u9cf4\u304d\u58f0": 2501, "\u500d": 42606, "\u5fc3\u81d3": 11249, "##\u3070": 37731, "\u304c\u3063": 9157, "\u98df\u3079\u308b": 23511, "\u5e83\u307e\u3063": 7975, "\u5a92\u4f53": 7021, "\u5bb6": 615994, "\u624b\u585a": 4897, "\u6cbb\u866b": 2121, "\u3082\u3089\u3063": 16437, "\u30c9": 57619, "##\u30ae\u30e5": 6183, "##\u30fc\u30f3": 36368, "\u30b7\u30fc\u30f3": 38317, "##\u3042\u3052": 4959, "\u8a18\u3057": 20291, "\u793e\u9577": 63536, "\u5800": 19848, "\u6df5": 5544, "\u6e05": 81353, "##\u6cbb": 53404, "\u58f2\u308b": 3824, "\u5f53\u305f\u308a": 19100, "\u30b9\u30bf\u30c3\u30d5": 37412, "\u60a9\u3093": 4517, "\u5727\u5012": 15701, "\u6b8b\u308a": 32659, "##\u9078": 16133, "\u53ce\u9332": 129420, "82": 18269, "37": 41629, "09": 11359, "46": 36725, "02": 13735, "24": 171441, "\u5c11\u306a": 2795, "\u67f3\u7530": 2370, "\u570b": 9236, "##\u7537": 33118, "\u30aa\u30c3\u30af\u30b9\u30d5\u30a9\u30fc\u30c9": 6807, "\u7248": 223278, "\u534a\u5206": 22153, "\u50c5": 2918, "##\u5c11": 3408, "\u7269\u4e8b": 3317, "\u697d\u3057\u3044": 13948, "\u301c": 139675, "\u771f\u3063": 8390, "##\u8d64": 2614, "\u304d\u308c\u3044": 12599, "##\u6b69": 12810, "\u9178\u6027": 2680, "\u76ee\u7acb\u3064": 6620, "\u8272": 99164, "##\u304c\u3063": 12560, "\u91dd": 10284, "\u306f\u3084": 7974, "\u5e97": 135505, "\u57fa": 82949, "\u3064\u307e": 10417, "\u304d\u3089": 6582, "\u8f38\u5165": 25479, "\u30b9\u30de\u30fc\u30c8": 14906, "##\u63b2": 964, "\u7528\u6cd5": 5040, "63": 26145, "\u52d5": 22739, "##\u614b": 13406, "\u3070\u3089": 6906, "##\u3070\u3089": 5604, "\u7121\u6570": 3534, "\u6307\u793a": 23749, "\u8272\u5f69": 6774, "\u53d6\u308a\u4e0a\u3052": 20897, "\u8ad6\u3058": 9046, "\u3053\u305d": 27717, "##\u3069": 20016, "\u3053\u306a": 2336, "\u3053\u3063": 5556, "\u6982": 20784, "\u3053\u3093\u306a": 20782, "\u307e\u305f\u304c\u308b": 3843, "##\u79f0": 10349, "\u9060": 29075, "\u4e0d\u5b9a": 2742, "\u3075\u3058": 9297, "##\u3087\u3046": 14946, "\u3066\u3044": 6683, "\u79f0": 9751, "##\u69fb": 2309, "##\u5f66": 35307, "\u96e2\u308c": 53353, "\u9060\u3044": 6536, "\u9060\u304f": 10362, "\u5411\u304b\u3063": 39506, "\u5f85\u3063": 13385, "\u304f\u308c": 55492, "\u8155": 19629, "\u8fd1\u304f": 70055, "\u6307\u3057": 16567, "\u3055\u3059": 5535, "\u304f\u3060\u3055\u3044": 32288, "\u6b20\u70b9": 7926, "\u4f50\u4e45\u9593": 3608, "\u9f0e": 2019, "\u304b\u306a": 11534, "\u6539\u3081": 21357, "##\u3070\u308a": 3607, "\u305d": 26212, "\u4e0b\u8a18": 24917, "\u6574\u7406": 20040, "##\u8fd1": 14681, "\u53d6\u308a\u5165\u308c": 18770, "##\u5207\u308c": 7723, "\u9053": 206703, "\u884c\u304b": 11524, "\u3061\u3087\u3063\u3068": 49754, "\u7b54\u3048": 26783, "\u3075\u3055\u308f\u3057\u3044": 3696, "\u7121\u304f": 24929, "\u3078\u3093": 5228, "\u63a2\u3057": 21962, "\u3088": 131126, "\u73fe\u5834": 25376, "##\u53e5": 8460, "\u6240\u5c5e": 199047, "\u898b\u308c": 6172, "\u4f59\u5730": 3668, "\u6b8b\u3055": 25885, "\u5f53\u3066\u306f": 4045, "\u30a2\u30ab": 11451, "\u30b7\u30ed": 8661, "\u30af\u30ed": 31353, "\u660e\u308b\u3044": 8497, "\u660e": 66052, "\u9855": 13149, "\u767d": 101996, "\u6f20": 1462, "\u6de1": 9354, "\u6697\u3044": 5787, "\u6697": 18292, "\u9854": 43562, "##\u8272": 42198, "\u30a2\u30aa": 4969, "\u30d0\u30fc": 66682, "\u30b1\u30a4": 17283, "\u5e83\u7bc4": 4190, "\u9ed2": 63233, "\u8d64": 69052, "\u7dd1": 31736, "\u9806\u6b21": 10058, "\u5408\u3063": 5474, "\u8b58\u5225": 8918, "\u9ec4\u8272": 12743, "\u6728": 87283, "\u7d2b\u8272": 2351, "\u8336\u8272": 3772, "\u8607": 10637, "##\u82b3": 3271, "\u6d45": 14649, "##\u8471": 445, "\u690d\u7269": 56531, "\u540d\u79f0": 109870, "\u89aa": 72285, "\u7537\u5973": 20539, "##\u5e7c": 1562, "\u30a2\u30cb": 13543, "##\u30cd": 113177, "\u30c8\u30a6": 7556, "\u30c8": 55628, "\u30e2": 57517, "##\u30a6": 109883, "\u8a73\u3057\u3044": 5835, "\u5e74\u4e0a": 5141, "\u5e74\u4e0b": 3663, "\u30aa\u30c8": 3993, "\u4e00\u62ec": 4405, "\u306f\u308b\u304b": 9168, "\u7236\u89aa": 39096, "\u7236\u6bcd": 2586, "\u6bcd\u89aa": 28715, "##\u5206\u3051\u308b": 2442, "\u30b8": 43822, "##\u30b8": 127524, "\u30d0\u30d0": 2156, "\u5144\u5f1f": 43067, "\u59c9\u59b9": 24431, "##\u30d0": 125950, "\u30a4\u30c8": 4742, "##\u30b3": 143655, "\u4f2f\u7236": 4277, "\u306f\u304f": 4863, "\u53d4\u7236": 11047, "\u5f93\u5144": 2487, "\u3058\u3085\u3046": 14851, "##\u3051\u3044": 3711, "\u5f93": 31412, "##\u59c9": 3917, "\u4ed6\u4eba": 11692, "\u865a": 9747, "\u5c0a\u656c": 7712, "##\u914d": 4568, "\u7537\u6027": 70970, "\u8b70\u4f1a": 89178, "\u9577\u8001": 5252, "\u30ab\u30c8\u30ea\u30c3\u30af": 28549, "\u795e\u7236": 3914, "\u5bee": 16436, "##\u6bcd": 22811, "\u7537": 90820, "\u89aa\u53cb": 10540, "\u5b97\u6d3e": 3682, "\u5973": 85167, "\u898b\u77e5": 1581, "\u306c": 33146, "\u5973\u6027": 157027, "\u5e74\u9577": 4280, "\u65e6": 2694, "##\u90a3": 10036, "\u4f2f": 33580, "\u5e97\u54e1": 5319, "\u4e2d\u5e74": 2278, "\u30c1\u30a7\u30b3": 12596, "\u3055\u3048": 20261, "\u4e00\u65cf": 24427, "\u4e00\u756a": 49331, "\u4ed6\u8005": 4375, "\u81ea\u8eab": 153474, "\u3084\u3063": 58240, "\u3042\u3052": 32050, "\u3070\u3042": 4905, "\u3061\u3083\u3093": 43231, "\u51fa\u81ea": 6641, "##\u30e1": 82383, "\u6885": 23773, "\u30a6\u30de": 5488, "\u30ab\u30df": 8746, "\u7c21": 8024, "\u30f1": 850, "\u5883\u754c": 24165, "\u66d6\u6627": 20041, "\u4e2d\u6838": 10628, "\u304d\u3087\u3046": 30751, "\u3042\u3059": 1615, "\u826f\u3044": 52508, "\u60aa\u3044": 26469, "\u3081": 26525, "\u5fa1": 87777, "##\u98ef": 13248, "\u30e9\u30a4\u30b9": 4953, "\u65c5\u9928": 7085, "\u30db\u30c6\u30eb": 48328, "\u540c\u7fa9": 3618, "\u30cb\u30e5": 5733, "##\u30a2\u30f3\u30b9": 7284, "\u6613": 8138, "##\u3057\u3044": 71924, "\u5351": 3916, "##\u4fd7": 4828, "##\u3005\u3057\u3044": 3537, "##\u3065": 10527, "\u3057\u305a": 4047, "\u6c88": 12002, "\u93ae": 23031, "\u9759": 20250, "\u9020\u8a9e": 4108, "\u3080": 31388, "\u7d44\u307f": 21427, "##\u5408\u308f\u3055": 2965, "\u5206\u6790": 31974, "\u8106": 1417, "\u8584": 15557, "\u7d50\u5408": 32019, "\u8106\u5f31": 4041, "\u62e1\u5927": 63491, "\u5b66\u554f": 12904, "\u535a\u58eb": 56889, "\u53e4\u304f": 25828, "##\u8ad6": 24943, "\u4f5c\u3063": 43848, "##\u88fd": 18220, "\u56fd\u7acb": 57309, "\u6539\u672d": 18877, "\u7740": 92114, "##\u5e2d": 15005, "##\u5f0f": 27093, "##\u7b54": 4593, "\u71b1": 44433, "##\u6f14": 10865, "\u72ec\u81ea": 47341, "\u9042\u3052\u308b": 1776, "cl": 6719, "##ai": 17975, "\u6a29\u5229": 33237, "\u8981\u6c42": 42626, "\u30af\u30ec\u30fc": 8079, "##\u30e0": 233239, "\u6587\u53e5": 4467, "##un": 25378, "\u663c": 22517, "##\u98df": 40298, "\u98df\u5802": 7999, "\u30e9\u30f3\u30c1": 4300, "\u6599\u7406": 63206, "\u30a2\u30a4\u30b9": 16741, "\u30ad\u30e3\u30f3": 8373, "##\u30c7\u30fc": 18613, "\u30b5\u30a4\u30c9": 26732, "\u30df\u30e9\u30fc": 9944, "\u30c6\u30fc\u30d6\u30eb": 10808, "\u30b9\u30d4\u30fc\u30c1": 5622, "\u5f53\u8a72": 17518, "##\u5f62": 44167, "##\u30e9\u30fc": 71948, "##\u30ea\u30b9\u30c8": 15115, "\u30d7\u30ec\u30bc\u30f3": 5334, "##\u30c6\u30fc": 16387, "##\u30bf\u30fc": 106932, "##\u30c6\u30fc\u30b7\u30e7\u30f3": 9397, "\u8907\u5408": 18601, "##\u304a": 38014, "\u306d\u3053": 3221, "\u304b\u305a": 7186, "\u306a\u3058\u307f": 1769, "\u304f\u3061": 3506, "\u5408\u308f": 6242, "\u719f": 7055, "\u3048\u3093": 6514, "##\u3074": 3439, "\u925b\u7b46": 2328, "##\u304b\u3044": 27043, "\u89e6\u308c": 15190, "\u91ce\u7403": 117073, "\u8349": 41196, "\u30b7\u30ea\u30fc\u30ba": 199504, "\u5e73\u6210": 220332, "\u65b0\u6f5f": 45620, "\u770c": 779296, "##\u8d8a": 27817, "\u5730\u9707": 46800, "\u707d\u5bb3": 20301, "\u5bfe\u7b56": 39912, "\u672c\u90e8": 51741, "\u670d\u90e8": 4854, "\u56db\u90ce": 5618, "\u5b9a\u5e74": 10502, "\u9000\u5b98": 8558, "\u8a18\u5ff5": 96452, "\u96c6": 63642, "\u7de8\u96c6": 57058, "\u59d4\u54e1": 177900, "\u5354\u5b9a": 25129, "\u95a2\u7a0e": 5017, "\u8cbf\u6613": 29966, "\u5acc\u3044": 11164, "\u5929\u7136": 20701, "\u5199\u771f": 85092, "\u56fd\u6559": 3493, "\u6761\u4f8b": 11204, "\u82f1": 76016, "\u9996\u76f8": 41114, "##\u30c3\u30c9": 41583, "##\u30b9\u30c8\u30f3": 12620, "\u307e\u308c": 6499, "\u5a01\u529b": 5901, "\u767a\u63ee": 18083, "\u611f": 59450, "\u4e0d\u5b89": 15294, "\u900f": 6006, "##\u3051": 92314, "\u61d0": 13362, "##\u304b\u3057": 14298, "\u3057\u3083": 19779, "\u6614": 24522, "\u540d\u524d": 108231, "\u63a5\u3057": 14715, "\u5206\u304b\u3089": 20503, "\u8702": 6062, "\u98df": 48571, "\u63a8\u6e2c": 18731, "\u5e38\u7528": 3148, "##\u9063\u3044": 3941, "\u6b63": 134964, "##\u66f8": 49323, "\u8aac\u304f": 2558, "\u4ea4": 23904, "##\u308f\u3055": 6193, "2017": 134332, "\u3099": 538, "\u7b26": 6271, "\u309a": 1180, "##\u7b26": 3945, "\u3041": 1740, "\u3043": 3280, "\u3045": 791, "\u3049": 635, "\u7b26\u53f7": 10581, "\u9055\u3046": 25981, "\u3090": 1869, "\u30f0": 215, "213": 2492, "##6": 130154, "86": 20022, "\u4eba\u540d": 4572, "\u5b9a\u3081": 42707, "\u7523\u696d": 73427, "\u898f\u683c": 25670, "JIS": 4888, "##8": 127604, "\u901a\u79f0": 39483, "\u96fb": 35012, "##\u7b97": 13201, "\u51e6\u7406": 46733, "\u672c\u5bb6": 5262, "2500": 4886, "350": 11712, "\u8ffd\u52a0": 59800, "\u4ea4\u3048": 5685, "\u6c11\u9593": 33627, "\u5023": 4503, "\u3086": 19168, "\u8a31\u5bb9": 4669, "\u5229\u70b9": 8075, "\u307e\u3068": 5229, "##\u8aad": 10923, "\u512a\u308c\u308b": 1705, "##\u7fa9": 31084, "\u7bc0\u7d04": 3172, "\u8a08\u7b97": 37503, "\u6a5f": 353915, "\u6751": 222912, "##\u5cf6": 90625, "\u60f3": 4694, "##\u8d77": 14805, "\u624b\u304c": 1956, "##\u304b\u308a": 19072, "\u9ad8\u3044": 116408, "\u6587\u5b66": 83685, "\u9ad8\u5cf6": 5494, "\u4fca": 25268, "\u904e\u5ea6": 3225, "\u4f9d\u5b58": 21492, "\u3056\u308b": 16888, "\u5b9f\u7528": 16102, "\u8a55\u3057": 15333, "\u5b9f\u884c": 34948, "##\u305c": 12420, "##\u8868": 12290, "\u9069\u3057": 10453, "\u6771\u5317": 44957, "\u67ff": 4871, "\u9375": 11208, "##\u5206\u3051": 11567, "\u8a18": 52439, "##\u305b": 75358, "##\u30ae": 52636, "\u4e0d\u4fbf": 3789, "\u5ca9\u624b": 18511, "\u6c17\u4ed9": 315, "\u30b1": 47084, "##\u6d66": 24486, "\u7384": 18428, "\u55e3": 4491, "\u8e0f\u307e\u3048": 7515, "\u6e96": 62469, "##\u6b4c": 17968, "\u3066\u3093": 15443, "##\u3043": 2117, "\u591a\u3005": 3173, "\u5404\u5730": 52978, "\u540d\u53e4\u5c4b": 68309, "\u5e02": 969659, "\u5730\u540d": 42413, "\u6741": 201, "\u3044\u308a": 2636, "##\u306a\u304b": 6002, "\u5b9a\u7740": 19064, "\u69d8\u5f0f": 23297, "\u8ac7\u8a71": 2346, "\u3054\u3056\u3044": 12524, "\u5409\u539f": 2841, "\u904a": 29137, "##\u3088": 19066, "\u6d41\u884c": 25712, "\u8868\u308c": 3708, "\u5927\u304d\u3044": 36061, "\u5207\u308a\u66ff\u3048": 9071, "\u9069\u7528": 32325, "\u8b72\u308b": 3252, "\u656c": 18526, "##\u5b9c": 2372, "\u4f7f\u3044\u5206\u3051": 3913, "\u521d\u3081": 28593, "\u72ec": 18736, "\u5bfe\u8a71": 5748, "\u7d50\u3076": 42327, "\u5ea6\u5408\u3044": 2389, "\u7f8e\u3057\u304f": 4156, "\u54b2": 7932, "\u7f8e\u3057": 6110, "##\u3085\u3046": 13708, "\u907f\u3051\u308b": 12682, "\u4f4d\u76f8": 8521, "\u6027\u5225": 5205, "\u5e74\u9f62": 27043, "\u8077\u696d": 20669, "\u5de6\u53f3": 24474, "##\u5bb9": 7320, "\u7269\u8a9e": 73377, "\u4f5c\u54c1": 364893, "\u6975\u7aef": 8437, "\u30b9\u30c6\u30ec\u30aa": 6128, "##\u30bf\u30a4\u30d7": 3290, "\u4eee\u60f3": 8057, "\u30d0\u30fc\u30c1\u30e3\u30eb": 4014, "\u4f5c\u308a\u51fa\u3057": 3447, "\u4ee4\u5b22": 1318, "\u51fa\u8eab": 257082, "\u30a2\u30cb\u30e1": 111614, "\u4e0e\u3048\u308b": 31544, "\u89b3\u5bdf": 17456, "\u59cb\u307e\u3063": 43387, "##\u57a3": 6950, "\u9b6f": 5595, "\u9053\u4e2d": 5883, "\u819d": 7994, "\u6817": 11552, "##\u6bdb": 29731, "\u30b8\u30e3\u30ef": 4278, "\u30c1\u30d9\u30c3\u30c8": 11630, "\u8b19": 8925, "##\u8b72": 5383, "\u51fa\u3059": 25600, "##\u30b7": 134140, "\u51fa\u3055": 23134, "\u51fa\u3057": 62346, "\u91d1\u7530\u4e00": 1934, "\u4eac": 37549, "##\u52a9": 20057, "\u3044\u304b\u306a\u308b": 5222, "\u7d76\u5bfe": 24418, "\u619a": 689, "\u7687\u5ba4": 5314, "\u7687\u592a\u5b50": 8667, "\u965b\u4e0b": 3046, "\u884c\u52d5": 66465, "\u3042\u3089\u3086\u308b": 17536, "\u9ad8\u5ea6": 26943, "\u7d44\u7e54": 119696, "\u51fa\u6765": 54972, "##\u4e0a\u304c\u3063": 14861, "\u9078\u629e": 52532, "\u80a2": 10783, "\u4e88\u3081": 2450, "\u7528\u610f": 26615, "\u9069\u5207": 18238, "\u9078\u3070": 53791, "\u5be9\u8b70": 17280, "##\u79d1": 20058, "\u6307\u91dd": 3715, "\u7b54": 4269, "##\u7533": 6680, "\u4e01": 16623, "##\u91cd": 25492, "\u7f8e": 70206, "##\u5316": 42725, "\u9ad8\u3081\u308b": 8518, "\u53d6\u308b": 19719, "\u53d6\u3089": 13536, "\u304a\u3063": 3899, "\u53ec\u3057": 3564, "##\u4e0a\u304c\u308b": 6724, "##\u301c": 5860, "\u7533\u3057": 10968, "##\u4e0a\u3052\u308b": 7226, "\u3044\u305f\u3060": 13138, "\u4f3a": 4521, "\u53c2": 17100, "\u307e\u3044": 8124, "\u591c": 75026, "\u66f4": 7180, "\u8a71\u984c": 26266, "\u5bae\u5730": 1262, "\u88d5": 18681, "\u3044\u305f": 8557, "\u5b58": 7821, "##\u793e": 13798, "\u5f0a": 2730, "\u6d77\u5916": 49111, "\u95a2": 33305, "\u540c\u7b49": 10497, "\u7167": 19153, "##\u3089\u3057": 21428, "\u53f1": 3327, "\u77e5\u308a": 19459, "\u307e\u305b": 202994, "\u8b1d": 6831, "\u5f15\u3044": 8207, "\u5f01\u5f53": 4902, "\u3054\u98ef": 5747, "\u914d\u616e": 10996, "\u77e5\u3063": 39897, "\u8ab2\u9577": 3388, "\u610f\u5411": 13256, "\u805e\u304f": 13793, "\u3044\u304b": 17449, "2000": 129548, "\u5a49": 808, "##\u66f2": 18465, "\u7a93": 28930, "\u958b\u3051": 10565, "\u307b\u3057\u3044": 15673, "\u3088\u3089": 2935, "\u304f\u308c\u308b": 17636, "\u554f\u3044": 6019, "\u6691": 12686, "\u306d\u3048": 3084, "\u6c17\u6301\u3061": 28563, "\u542b": 3300, "\u5546": 22408, "\u53d6\u5f15": 35604, "\u3055\u305b": 18180, "\u3082\u3089\u3044": 13064, "\u62d2\u7d76": 6744, "\u8a98\u3063": 2713, "\u3042\u308a\u304c\u3068\u3046": 13418, "\u8a98\u3044": 6547, "\u5e30\u308a": 13620, "##\u304c\u3051": 4843, "\u3076": 20259, "##\u3076": 39000, "##\u3065\u3051": 2123, "\u8336": 31612, "##\u6f2c\u3051": 1841, "\u3084\u3059": 14206, "\u611b\u60f3": 904, "\u51fa\u5178": 20088, "\u843d\u8a9e": 13950, "\u5bb3": 7355, "\u5de5\u592b": 7366, "\u5e83\u7fa9": 6524, "\u547c\u5438": 9624, "\u62db\u304f": 4536, "\u304a\u305d\u308c": 3702, "\u60f3\u5b9a": 17212, "\u533a\u753b": 21246, "\u6307\u6a19": 6580, "##\u6761": 21523, "\u64cd": 6882, "\u5168\u56fd": 115595, "\u5317\u6d77\u9053": 83828, "\u95a2\u6771": 48028, "\u516b": 79997, "##\u4e08": 15216, "\u6771\u6d77": 29329, "\u6771\u5c71": 7053, "\u5317\u9678": 12514, "##\u4f2f": 4727, "\u51fa\u96f2": 8354, "##\u8006": 2152, "\u8c4a": 41725, "##\u65e5": 81072, "\u8c4a\u524d": 2544, "\u8c4a\u5f8c": 4495, "\u65e5\u5411": 6568, "\u80a5": 7504, "\u7b51": 4047, "\u7b51\u7d2b": 3326, "\u80a5\u524d": 3637, "\u80a5\u5f8c": 4045, "\u85a9": 2986, "##\u9685": 3644, "\u85a9\u6469": 12627, "\u5927\u9685": 2480, "\u5944\u7f8e": 4501, "\u7fa4\u5cf6": 3135, "\u6c96\u7e04": 46507, "\u5148": 125390, "##\u8f2a": 19636, "\u4e2d\u90e8": 25178, "\u5317\u90e8": 53073, "\u757f\u5185": 2676, "\u63cf\u304f": 22822, "\u5e7e": 24259, "\u6848": 48157, "\u793a\u3055": 19591, "\u5185\u90e8": 40592, "\u5bcc\u3093": 3153, "##\u6d25": 51871, "##\u5ddd": 131008, "\u4e0b\u5317": 2410, "##\u5c71": 143497, "\u5468\u8fba": 88119, "\u6c60": 35308, "##\u539f": 77478, "\u53d6\u308a\u56f2": 3689, "\u9999\u5ddd": 14586, "\u89b3\u97f3": 13328, "##\u5bfa": 37204, "\u4f0a": 38520, "##\u5439": 7421, "\u753a": 446964, "\u5730\u70b9": 29887, "##\u3057\u304f": 47908, "\u8a18\u9332": 214612, "\u4fa1": 5469, "\u6771\u897f": 26161, "\u304a\u3088\u305d": 23228, "\u30ca\u30a4": 13758, "\u30f3": 14412, "\u5b8c\u4e86": 21006, "\u30c6\u30eb": 14329, "\u30c8\u30eb": 15291, "\u30c0": 74347, "\u30b8\u30e3": 43295, "\u30a2\u30ef": 2050, "\u30ab\u30c3": 13078, "##\u30bf": 183753, "\u8cb7": 10611, "##\u4fbf": 7411, "\u30b3\u30fc": 34130, "\u30e4\u30af": 2377, "\u30ca\u30eb": 7957, "\u30e8\u30fc": 12540, "\u5f15": 26837, "\u53d6\u308a\u4e0a\u3052\u308b": 2984, "\u304a\u304a\u3080\u306d": 6461, "\u6d77": 149848, "\u897f\u7aef": 4801, "\u7cf8": 16760, "##\u9b5a": 13176, "\u9759\u5ca1": 41149, "\u6d5c": 27567, "##\u540d": 80978, "\u897f\u65b9": 9735, "##\u6240": 39344, "\u4e0d\u77e5": 1495, "\u30a2\u30eb\u30d7\u30b9": 4376, "##\u306a\u3063": 4932, "\u59a8\u3052": 5991, "\u4e00\u56e0": 4136, "\u4eac\u962a": 9000, "\u6982\u306d": 9092, "##\u4fe1": 41221, "\u5357\u897f": 28689, "\u5317\u6771": 26440, "\u5730\u5e2f": 25900, "\u631f": 2942, "\u897f\u5357": 5675, "\u5bae\u5d0e": 22916, "\u90fd\u57ce": 2478, "\u96eb": 1354, "##\u77f3": 40758, "\u5c71\u68a8": 17963, "\u65e9\u5ddd": 3914, "##\u7530": 153711, "\u4e0a\u304c\u308a": 6633, "\u77e5\u899a": 2763, "\u9ad8\u304f": 45800, "\u6c7a\u307e\u308a": 7040, "\u5909\u7a2e": 2871, "\u677e": 50832, "\u539f\u59cb": 6541, "\u5206\u5c90": 18568, "\u65b9\u5411": 59416, "##\u653f": 35343, "\u540d\u7fa9": 28798, "\u6284": 6351, "\u8d77\u3053\u3057": 35435, "##\u6751": 53875, "\u5c71\u53e3": 38807, "\u5e78": 29216, "##\u6d0b": 11382, "\u9e7f\u5150\u5cf6": 34987, "\u6cbf\u5cb8": 23794, "\u8d8a\u5f8c": 8140, "\u8328\u57ce": 22364, "\u6803\u6728": 18850, "\u3068\u3093": 5858, "\u5cf6\u6839": 10186, "\u72ed\u304f": 4928, "\u5343\u8449": 57466, "\u57fc\u7389": 39978, "\u4f50\u6e21": 4641, "\u5bcc\u5c71": 27459, "\u77f3\u5ddd": 27135, "\u80fd\u767b": 4472, "\u5927\u91cf": 32882, "\u4f38\u3070\u3057": 9143, "\u3051": 20075, "\u5c71\u9670": 4856, "\u5f31\u304f": 4475, "##\u4ee3": 55925, "\u518d": 143796, "\u8a55\u4fa1": 111732, "##\u7d00": 15413, "\u4e07\u8449": 3378, "\u308d": 8398, "##\u985e": 14919, "\u53e4\u4e8b": 3622, "\u57fa\u3065\u304f": 28136, "\u30a2\u30a4": 55121, "\u5408\u8a08": 34929, "##\u53d6\u3089": 6736, "\u306a\u304f\u306a\u308a": 5605, "\u4ed5\u65b9": 7845, "\u30a6\u30e9": 11605, "\u306f\u306a": 10057, "\u30d1\u30ca": 2126, "\u9045\u304f": 11870, "\u672b\u671f": 24671, "\u5f53\u6642": 291320, "\u30ad\u30ea\u30b7\u30bf\u30f3": 2361, "\u8cc7\u6599": 45360, "##i": 138664, "##o": 177997, "\u8ee2\u5199": 6574, "\u30d5\u30a7": 29879, "\u30d5\u30a9": 17723, "\u79fb\u884c": 33692, "\u5f15\u304d\u7d9a\u304d": 23437, "\u8870\u9000": 13104, "\u63a8\u79fb": 14121, "\u8ee2": 27301, "##\u547c": 2352, "\u95a2\u897f": 42769, "\u9000": 24551, "\u5929\u5730": 4068, "\u9803": 159615, "\u306a\u304f\u306a\u3063": 15017, "97": 14312, "##\u904a": 10825, "\u70ba": 61999, "\u723e": 3933, "\u6b4c": 102466, "\u3053\u306e\u9803": 16714, "\u5931\u3044": 10548, "\u4ed8\u3057": 2095, "\u66f8\u304f": 31614, "\u5ba4\u753a": 14309, "\u524d\u671f": 17891, "##\u9803": 9131, "\u8fd1\u3065\u3044": 5033, "g": 122599, "z": 12342, "##z": 48399, "\u305c": 13032, "x": 29277, "\u30b8\u30a7": 24491, "\u6b8b\u3063": 49848, "\u8d77\u3053\u3063": 26062, "\u5ddd": 251229, "\u8c9d": 10906, "\u66ff": 5683, "##\u307b": 7849, "##au": 16647, "##\u30ef": 70063, "11": 495128, "12": 547061, "\u85e4\u539f": 26529, "##\u5bb6": 56829, "##\u5b98": 22480, "\u7389": 42996, "##\u6df5": 6429, "\u8aac\u3044": 4620, "\u65b0\u4e95": 4797, "\u767d\u77f3": 6098, "\u96c5": 21288, "\u65e9\u304f": 35023, "\u5143\u7984": 10591, "\u4eab\u4fdd": 8846, "\u8b33": 5357, "##\u83ef": 14791, "##\u8449": 34653, "\u5909\u3048\u308b": 11190, "\u6b21\u3044\u3067": 8778, "\u8a73": 4075, "\u304f": 50351, "\u304f\u3059": 3382, "\u4fbf": 45511, "\u98db\u3073": 21032, "\u98db\u3093": 4693, "\u6e90\u6c0f": 13055, "##\u307f": 133300, "\u82e6": 15539, "\u3057\u304d": 8159, "\u82e6\u3057\u3044": 3319, "\u898b\u51fa\u3055": 3454, "\u938c\u5009": 29768, "##\u3067": 16977, "\u53ca": 4789, "\u308c\u3093": 7417, "\u3058\u3087\u3046": 26270, "\u9280": 46510, "##\u674f": 943, "\u30ae\u30f3": 4773, "##\u30ca\u30f3": 12721, "\u96ea": 41041, "##\u96a0": 2452, "\u30bb": 51666, "\u30c3": 8971, "\u30a4\u30f3": 87269, "##\u30c3\u30c1\u30f3": 694, "\u8d77\u3053\u3059": 12947, "\u30cb\u30f3": 8655, "##\u30b2\u30f3": 38832, "\u30b3\u30f3": 60443, "##\u30c3\u30bf": 20290, "\u592e": 2293, "\u30a2\u30a6": 18550, "\u5fdc": 17680, "##\u5bfe": 5180, "\u30aa\u30a6": 4650, "\u30ab\u30a6": 9818, "\u30b3\u30a6": 6890, "\u958b\u3051\u308b": 3206, "##\u307c": 18492, "\u4e71\u308c": 3925, "##\u4e00": 78039, "\u30aa\u30fc": 37989, "\u5931\u308f": 18483, "\u7121\u304b\u3063": 15898, "\u30af": 60025, "##\u30ee": 415, "##\u30fb\u30b0": 8632, "##\u30f0": 561, "##\u30f1": 473, "\u30ad": 78967, "\u5947": 16214, "##\u602a": 1328, "\u30db\u30f3": 8826, "\u672c\u9858": 6559, "\u30d8\u30f3": 13122, "\u5f53\u521d": 140700, "\u5f37\u304b\u3063": 4670, "\u5bff\u547d": 7510, "\u77ed\u304f": 11124, "\u30ae": 32561, "\u30b2": 23408, "\u7d71\u5408": 53728, "\u30b0": 24860, "\u901a\u3058": 55063, "##\u500b": 3662, "\u5165": 44399, "\u97fb": 3699, "\u5fe0\u5b9f": 7273, "\u9032\u884c": 30488, "##me": 30447, "\u4ecf": 30812, "##\u6ec5": 9909, "\u7f70": 8402, "##\u30fb\u30d5\u30a1": 4885, "##\u30fb\u30b8": 8686, "##\u30a7": 41914, "##\u30fb\u30c7\u30a3": 6892, "##\u30fb\u30c7": 7987, "##\u30e5": 56261, "##\u30a1": 33426, "\u30af\u30a3": 4167, "##\u30fb\u30af": 15614, "##\u30a9": 18353, "##\u30c4\u30a3": 9209, "##\u30fb\u30c8\u30a5": 3311, "##\u30fb\u30c9\u30a5": 2649, "##\u30fb\u30c6": 8127, "##\u30fb\u30d5": 9527, "\u307f\u308c": 2514, "\u5f93\u6765": 51634, "\u30e9": 83440, "\u6e1b\u3063": 6460, "\u6b7b\u306c": 10437, "\u6709\u308a": 4528, "\u898f\u6a21": 94009, "\u304d\u308c": 7966, "\u660e\u3051": 9075, "\u63b2\u3052\u308b": 4817, "\u3051\u308c": 393, "\u304b\u308a": 2845, "\u304b\u308b": 1763, "\u304b\u308c": 6605, "\u30b7\u30af": 3609, "\u5b9f\u8cea": 21647, "\u79f0\u3055": 20245, "##\u7d50": 8571, "\u305e": 10877, "\u7d50\u3093": 32970, "##\u91cc": 35567, "\u5bc2": 7783, "\u5897": 35121, "##\u3055\u308a": 843, "\u53e4\u4eca": 3568, "\u5897\u3059": 3260, "\u544a\u77e5": 7396, "\u4eee": 26672, "\u7d50\u3070": 12358, "\u8ca7\u4e4f": 2874, "\u8f9b": 12918, "##\u62b1": 1948, "\u9055": 4840, "\u63a1\u3063": 4933, "\u5bfe\u9762": 5304, "\u6b62\u3081": 17028, "##\u308d\u3055": 2211, "##\u52b4": 7280, "\u306b\u3066": 192570, "##\u3084": 29307, "\u4e0a\u65b9": 7144, "\u6771\u56fd": 3017, "##\u306a\u308a": 7800, "\u9152": 39940, "\u98f2": 3858, "\u6642\u671f": 102473, "\u8aad\u3081": 6572, "\u6301\u3066": 3774, "\u5200": 15414, "\u629c\u304f": 2858, "\u629c\u3051\u308b": 2979, "##\u63a8": 1035, "\u5927\u6b63": 77577, "##\u629c\u304d": 5632, "##\u308c\u308b": 20910, "\u5c45": 26424, "\u5927\u6226": 80547, "\u6795": 5619, "\u306b\u304f": 2210, "\u3068\u3042\u308b": 4128, "\u89e3": 26488, "##\u3059\u308b": 39134, "\u9020\u3089": 9122, "\u7d2b": 15245, "##\u639b\u3051": 7961, "\u6b27": 2866, "\u53d6\u308a\u5165\u308c\u308b": 2527, "\u5165\u308a": 118002, "\u5143\u3005": 28366, "\u8b58": 3454, "\u601d\u60f3": 35588, "\u6d41\u5165": 8553, "\u4ecf\u6559": 25302, "\u6700": 95961, "\u5f92": 27611, "##\u8349": 20803, "##\u4ea4": 13593, "\u7570\u306a\u308a": 34799, "31": 124499, "\u5ef6\u3079": 2924, "\u5e55\u672b": 11056, "##\u82f1": 12900, "##\u6797": 30935, "\u96c6\u6210": 1758, "25": 185438, "\u96fb\u4fe1": 5008, "\u9244\u9053": 232295, "\u90fd": 144501, "##\u9119": 252, "\u7947\u5712": 3858, "\u82b8\u8005": 1836, "\u597d\u307f": 7917, "\u9716": 254, "##\u96e8": 11696, "\u76c6": 4795, "\u30ce": 93533, "\u8131\u8d70": 4661, "\u706b": 39212, "##\u9262": 2171, "\u56e0": 7060, "##\u5faa": 20, "##\u30c6": 96085, "\u3042\u3075": 2290, "\u306a\u304b\u306a\u304b": 12969, "\u3064\u304b": 20627, "##\u4ead": 5014, "##\u8ff7": 1103, "\u6d6e": 13110, "##\u96f2": 20282, "\u52e2": 15246, "\u898b\u4e0b": 3171, "\u63cf\u304b": 49139, "\u96d1\u8a8c": 59542, "\u4e0a\u56de\u308a": 2241, "\u53ca\u3076": 15883, "\u68b5": 2652, "\u5171": 186632, "\u4f1d\u3048": 47586, "\u5a11": 259, "##\u5a46": 2098, "\u6a80": 3521, "\u66fc": 2534, "##\u837c": 1799, "##\u7f85": 17159, "\u307b\u3068": 2094, "\u304b\u308f": 16029, "\u74e6": 9684, "\u5ba3\u6559": 9061, "\u5e2b": 67979, "\u6765\u65e5": 18834, "\u30ab\u30b9\u30c6": 3777, "\u30b3\u30f3\u30da": 4918, "##\u30a4\u30c8": 17782, "\u30b5\u30e9": 22873, "##\u30b5": 103904, "\u30b8\u30e5": 34600, "##\u30d0\u30f3": 23122, "\u30bf\u30d0\u30b3": 7223, "##\u30c6\u30ec": 3295, "\u30d3": 58156, "##\u30ed\u30fc\u30c9": 4578, "\u30e1\u30ea": 8475, "##\u7fbd": 15997, "\u30ab\u30eb": 47804, "##\u30c3\u30ad": 13439, "\u30d1\u30f3": 43364, "\u30dc\u30bf\u30f3": 16762, "##\u30cb\u30b7": 5827, "\u862d": 11218, "\u8208": 30484, "##\u9686": 17512, "\u30a2\u30eb\u30b3\u30fc\u30eb": 12069, "\u30a8\u30ec\u30ad": 1580, "\u30ac\u30e9\u30b9": 19406, "\u30c9\u30f3": 23290, "##\u30af": 258877, "\u4ee5\u5f8c": 64742, "\u6025\u5897": 5156, "\u30b9\u30c6\u30f3": 2586, "##\u30b7\u30e7\u30f3": 41172, "\u99c5": 555075, "\u30c6\u30ec": 22742, "##\u30ac\u30e9": 7137, "##\u30d5": 168429, "\u576a": 9059, "\u900d": 797, "##\u9065": 534, "\u5f53": 85984, "##\u4e16": 18358, "\u6c17\u8cea": 1777, "1885": 7809, "\u305b\u308a": 1772, "##\u3075": 13828, "\u6211": 13437, "\u6642\u8a08": 18325, "##\u30c4": 137403, "##\u30c1": 113515, "##\u30df\u30cb": 3868, "\u305f\u3089": 108978, "##\u592b": 65304, "\u53c8": 27936, "\u8cb8": 8999, "\u9041": 931, "\u30d7\u30ec": 24454, "\u30c6\u30ad\u30b9\u30c8": 10022, "\u4e03": 69084, "\u30bb\u30d6\u30f3": 10238, "\u3014": 5425, "\u8cea": 47829, "\u3015": 5407, "\u30a6\u30f3": 7857, "\u58f2": 6006, "\u30bb\u30eb": 29696, "\u6fc0\u3057\u304f": 12643, "\u81ea\u7c9b": 2558, "##\u6f6e": 13310, "\u6226\u5f8c": 53773, "\u7206\u767a": 23355, "\u5831\u9053": 45309, "\u901a\u4fe1": 65607, "\u77ac\u6642": 1466, "\u8d85\u3048\u308b": 25499, "\u7948": 6282, "##\u5ff5": 11364, "\u795e": 154461, "##\u5999": 3926, "##\u6f54": 5460, "\u8cc7\u683c": 36144, "\u6804\u990a": 14332, "\u8840\u6db2": 24286, "\u65b0\u4eba": 27671, "\u53d6\u5f97": 59743, "\u6442\u53d6": 8959, "\u63a1\u53d6": 6322, "\u64ae\u5f71": 75984, "\u304d\u3088": 2769, "\u304d\u3088\u3057": 1924, "##\u6d44": 2573, "##\u6f84": 4717, "##\u7d14": 4217, "##\u30ad": 110911, "\u30d0\u30b1": 3035, "\u30b9\u30b1\u30c3\u30c1": 3924, "\u30b5\u30fc\u30d3\u30b9": 89489, "##\u30c1\u30c3\u30af": 7133, "\u30bb\u30f3\u30c1": 6278, "##\u30e1\u30f3\u30bf\u30eb": 1597, "\u9006\u8ee2": 13658, "\u5c11\u306a\u304b\u3063": 6780, "59": 24391, "42": 39128, "44": 37339, "\u6f38": 4179, "##\u5897": 6487, "\u4e0a\u56de\u308b": 9885, "\u5272\u5408": 14768, "\u78ba": 6375, "##\u9178": 14817, "\u9ec4\u8272\u3044": 3228, "\u56db\u89d2": 3770, "\u7c98": 10956, "##\u3063\u3053": 9960, "\u308f\u305a\u304b": 36657, "\u30a8\u30ec": 13694, "##\u30ac\u30f3": 23538, "##\u30c8": 381394, "\u30af\u30ea\u30fc\u30f3": 3332, "\u547c": 6822, "##\u3079\u308b": 9315, "\u5f8c\u4e16": 9071, "\u507d": 14340, "\u907a\u7269": 5830, "\u798f\u5ca1": 63026, "\u51fa\u571f": 14465, "\u59d4": 4732, "\u5974": 6475, "\u56fd\u738b": 25208, "\u5370": 23479, "\u672c\u683c": 31762, "\u5f8c\u5e74": 11631, "##\u795e": 41754, "\u767e\u6e08": 4922, "\u5b66\u8005": 22781, "\u738b": 175651, "##\u4ec1": 24320, "\u5dfb": 75310, "\u643a": 5055, "\u7a32\u8377": 6042, "\u53e4\u58b3": 30829, "\u9244": 73219, "##\u5263": 5989, "\u9298": 8499, "\u96c4": 31761, "##\u7565": 11288, "\u76ee\u3055": 3195, "\u523b\u307e": 6172, "\u9685\u7530": 1913, "\u516b\u5e61": 19715, "\u795e\u793e": 77432, "\u93e1": 33406, "\u7d14": 30505, "\u53f2\u6599": 15106, "\u653f\u6a29": 58479, "##\u9577": 68548, "\u57df": 37754, "\u5112\u6559": 2762, "##\u6559": 19489, "\u548c\u6b4c": 8415, "\u6ce2": 57237, "\u80fd": 24482, "\u306f\u3064": 3262, "\u306f\u308b": 8014, "\u501f\u308a": 16828, "\u5199": 8303, "\u65b9\u5f0f": 63213, "##\u7c21": 1648, "\u5b57\u4f53": 3250, "\u5d29\u3057": 4047, "\u8b83\u5c90": 3945, "\u6238\u7c4d": 4177, "\u5e33": 13541, "##\u5e74": 49312, "\u7533": 10354, "\u521d\u3081\u3066": 126816, "\u81ea\u5728": 2778, "\u64cd\u3063": 819, "\u738b\u671d": 16531, "\u9802\u70b9": 8863, "\u8fce\u3048": 56758, "\u50e7\u4fb6": 6229, "\u9685": 4251, "\u30b3\u30c8": 3265, "##\u753b": 12396, "##\u4fa1": 15492, "##\u6e90": 6981, "1900": 15297, "33": 49564, "\u4ee4": 30395, "\u65bd\u884c": 32537, "\u5c4b": 59194, "\u30ab\u30ef": 6274, "\u4e0d\u660e": 55451, "\u6642\u3005": 14794, "\u898f\u7bc4": 4175, "\u3070\u304b\u308a": 37610, "\u5f93\u3046": 7903, "\u6b4c\u4eba": 5313, "##\u4eba": 86878, "\u59cb\u307e\u308b": 31076, "\u5f85\u305f": 4914, "\u6539\u5b9a": 6080, "\u305f\u3073\u305f\u3073": 8766, "\u5b9f\u65bd": 109546, "\u79fb\u3055": 9618, "\u4eba\u5f62": 16252, "\u68d2": 14667, "##\u5f15\u304d": 8661, "1904": 10941, "\u5c0b\u5e38": 6392, "\u5c0f\u5b66": 27468, "##\u672c": 74902, "\u60aa\u304f": 13809, "\u6539\u6b63": 46430, "\u6b21\u671f": 4994, "1910": 14839, "\u623b\u3063": 38141, "1946": 26167, "\u5185\u95a3": 51832, "\u544a\u793a": 4551, "\u7565": 65332, "\u7c73": 65700, "\u4f7f\u7bc0": 6286, "\u56e3": 102114, "\u52e7\u544a": 7883, "\u5b9f\u73fe": 48362, "1948": 26372, "GHQ": 4450, "\u5c40": 234437, "CI": 9201, "##E": 99158, "\u7387": 115417, "\u6291\u3048": 19210, "\u4e88\u60f3": 22832, "\u53cd\u3057": 5561, "\u6c34\u6e96": 11151, "\u5224\u660e": 24277, "1981": 37633, "\u5236\u9650": 44162, "\u6539\u8a02": 8744, "\u9001\u308a": 22621, "##\u6b21": 31382, "\u308f\u305f\u308b": 14456, "1973": 36742, "\u7d9a\u3044": 68630, "##\u6f22": 6317, "##\u6dc6": 419, "\u671d\u5ef7": 11224, "\u516c": 161661, "\u3044\u308f\u3070": 3337, "\u76f4\u8a33": 4121, "\u7279\u6709": 7333, "\u8cdc": 5191, "\u305f\u307e": 12023, "\u5750": 2480, "\u6df7\u305c": 6316, "\u5bfa": 164758, "\u85ac\u5e2b": 6192, "##\u5149": 54676, "\u80cc": 34152, "##\u9298": 3219, "\u81e3": 8799, "\u4e43": 7771, "\u5c13": 137, "\u7d9a": 14367, "\u7d00": 32176, "\u795d": 10792, "\u306e\u308a": 7275, "\u5ba3": 19131, "##\u547d": 20223, "\u305b\u3093": 29882, "\u307f\u3087\u3046": 2176, "##\u6dfb": 7402, "\u672c\u6587": 5429, "\u9032\u51fa": 59524, "##\u3058\u308a": 4179, "\u6700\u53e4": 11532, "\u5927\u5bfa": 4279, "\u8af7": 628, "##\u8aa6": 880, "##\u7a3f": 5979, "##\u56de\u3057": 5676, "\u751a": 4757, "\u30be": 12498, "##\u30b6\u30eb": 4617, "\u5bae\u5ef7": 12965, "\u3075\u3046": 4839, "\u3044\u3068": 2075, "##\u3069\u3053\u308d": 3546, "##\u3058\u308b": 3268, "\u3042\u3051": 3870, "\u3057\u308d": 8764, "\u6210": 51444, "##\u3053\u3057": 6584, "\u5e73\u5bb6": 5695, "\u5b8c\u6210": 77993, "\u5449": 24148, "\u834a": 3372, "##\u68d8": 256, "\u304b\u304f": 10327, "\u54c0": 6468, "##\u5ea6": 37050, "\u53cb\u4eba": 35724, "\u90ca\u5916": 17805, "\u6563": 25022, "##\u7b56": 9475, "\u53cb": 31906, "##\u3060\u3061": 8953, "\u9023\u308c": 29183, "##\u3060": 37605, "##\u305a": 27618, "\u3076\u3089": 3601, "\u6b69\u3044": 10186, "##\u5408\u308f\u305b": 15780, "\u7db4\u3063": 2392, "##\u767e": 9553, "\u751f\u307e\u308c\u308b": 43151, "##\u307e\u305a": 2534, "\u6210\u719f": 6208, "\u8a9e\u308a": 14817, "##\u53e3": 46049, "\u958b\u304d": 11124, "\u7aba": 3650, "##\u3048\u308b": 32683, "\u6d12": 976, "##\u843d": 16702, "\u6ed1": 8848, "##\u7a3d": 2839, "##\u304a\u3046": 14009, "\u4f9d\u7136": 7649, "##\u3058\u3063": 4573, "\u3055\u308b": 1950, "\u5c31\u5b66": 2442, "\u7fa9\u52d9": 24898, "\u6587\u90e8": 15368, "\u6163": 5000, "\u4e45": 50848, "\u30d9": 47875, "\u4e8b\u9805": 12916, "1905": 11798, "38": 44098, "\u52aa\u529b": 16845, "\u5c3e\u5d0e": 4943, "\u7d05\u8449": 4267, "\u5834": 211912, "14": 197840, "\u9632": 23452, "\u6b64": 3677, "##\u56fd": 51374, "\u6bdb": 26678, "\u98db\u9a28": 4816, "\u898b\u3048": 27935, "\u89b3": 45143, "\u8cb4\u91cd": 10031, "\u65ad\u7247": 5234, "\u3068\u3069\u307e\u3063": 8433, "\u6226\u56fd": 21803, "\u652f\u914d": 75730, "##\u308f\u308c\u308b": 2017, "\u6d1e": 15642, "\u6709\u540d": 69184, "\u5b89\u571f": 5320, "\u6843\u5c71": 6143, "\u6570\u591a\u304f": 29016, "\u6b8b\u3057": 51251, "\u636e\u3048": 8242, "##\u9332": 4395, "##\u8461": 133, "\u8f9e\u66f8": 8540, "160": 20504, "##3": 123799, "##4": 125910, "\u7b51\u524d": 2796, "\u5099\u524d": 4235, "\u30ed\u30c9\u30ea\u30b2\u30b9": 2855, "##\u671f": 22251, "\u8a33\u8a9e": 2568, "\u524d\u534a": 31457, "##\u8a33": 15346, "##9": 122329, "\u5cf6\u6d25": 10713, "\u4fb5\u653b": 27920, "\u4e8b\u4ef6": 156851, "\u85e9": 94395, "\u4f1d\u308f\u308b": 11334, "\u6b4c\u8b21": 9073, "\u30e0": 44547, "\u96c6\u3081": 43841, "\u304a\u3082": 19477, "\u3046\u3057": 3412, "153": 10440, "162": 14482, "\u4ee5\u6765": 80668, "\u5e55\u5e9c": 39193, "\u5fb3\u5ddd": 30808, "\u5f81": 9647, "##\u5937": 6460, "\u5927\u5c06\u8ecd": 5526, "\u958b\u82b1": 4416, "\u9ad8\u307e\u308a": 7230, "\u56f3\u308b": 15499, "\u78ba\u7acb": 27107, "\u77ef\u6b63": 3177, "##\u6ca2": 50951, "##\u4e8c": 30477, "\u6559\u54e1": 16286, "\u66f8\u7269": 6248, "\u8457\u3057": 9005, "\u9996": 33803, "\u672d": 6743, "##\u5247": 13226, "\u8ecd\u968a": 16952, "\u521d\u7b49": 4402, "\u6bb5\u968e": 42206, "\u6307\u5c0e": 90853, "\u5371\u60e7": 6135, "NHK": 54560, "\u662d\u548c": 341522, "\u7d14\u7c8b": 10318, "80": 49409, "\u8001\u4eba": 9795, "1953": 23965, "\u8a08\u753b": 170841, "\u9332\u97f3": 29466, "\u90a6": 17408, "\u5ca9": 61369, "\u60a6": 4024, "##\u592a\u90ce": 43286, "\u3042\u305f\u3063": 20102, "\u90fd\u5e02": 180174, "\u8ecb": 1686, "##\u8f62": 1546, "\u7b11\u308f": 2185, "\u81ea\u6bba": 19373, "\u60c5\u52e2": 8600, "\u8170": 13371, "1960": 54251, "##\u30e8": 19020, "\u306d": 137254, "##\u8da3": 919, "\u30a2\u30f3\u30b1\u30fc\u30c8": 5251, "\u304a\u304d": 13600, "\u56de\u7b54": 10430, "90": 43496, "\u9054\u3059\u308b": 12282, "\u30b3\u30f3\u30d7\u30ec\u30c3\u30af\u30b9": 3329, "\u89e3\u6d88": 17018, "\u5411\u304b\u3044": 15066, "\u5927\u5207": 17867, "##\u904b": 14277, "\u76db\u308a": 14251, "1990": 84176, "\u82e5\u8005": 17058, "\u96c6\u307e\u308b": 6868, "1995": 59062, "\u30e9\u30c3\u30d7": 9197, "DA": 11700, "YO": 3924, "NE": 5930, "NA": 17232, "\u66ff\u3048": 5474, "\u90fd\u5185": 7026, "\u5927\u5b66": 695284, "\u6d78\u900f": 7495, "2005": 120820, "\u5973\u5b50": 98489, "\u3068\u3066\u3082": 74852, "\u304b\u308f\u3044": 8834, "!": 444303, "\u3079": 21955, "\u53c2\u8003": 25697, "##\u3057\u308d": 8417, "\u767a\u4fe1": 8746, "\u8cc7": 11732, "\u6b8b\u308b": 25237, "\u8a87\u308a": 5871, "\u6301\u3061": 67215, "\u95a2\u5fc3": 22285, "\u5bc4\u305b": 14953, "\u9577\u304f": 28444, "\u57a3": 5255, "##\u9593": 40842, "\u79d8": 12356, "\u3053\u3060": 5039, "##\u98a8": 49381, "\u8d77\u3053\u308a": 13769, "\u5ba2\u89b3": 4122, "\u5b9f\u8a3c": 7334, "\u6df1\u3081": 5775, "\u4ed8": 56195, "\u6d41\u308c": 59462, "\u6089": 1055, "##\u66c7": 942, "\u76f8\u5bfe": 16393, "\u6de4": 142, "##\u80fd": 16077, "##\u7881": 525, "##\u5442": 6478, "\u5d8b": 4853, "##\u4ee5": 1755, "\u4ee5": 11331, "##\u30b4": 77264, "\u3008": 27164, "\u3009": 27156, "##\u6ce8": 13757, "\u501f": 6362, "\u81ea\u899a": 3747, "##\u304b\u3063": 66095, "\u8aa6": 442, "\u3044\u308d": 9753, "##\u3089\u3044": 10005, "\u306e\u3061": 78641, "\u899a\u3048": 18533, "\u9806\u756a": 6498, "\u6574": 11496, "\u9177\u4f3c": 2957, "\u3046\u304b\u304c": 4290, "\u53cd": 56756, "##\u5207": 16013, "\u899a": 13083, "\u8981": 22717, "##\u8a23": 649, "\u5f15\u7528": 13783, "\u898b\u305b": 45774, "\u5927\u3044\u306b": 9661, "\u6279\u8a55": 23271, "\u6b63\u5f53": 8899, "\u7e4b\u304c\u3063": 8219, "\u662d": 15530, "\u8896": 5697, "##\u5915": 2614, "\u3064\u3081": 2324, "\u6545": 14253, "\u4e5f": 7687, "\u901a": 65012, "##\u304c\u3044": 12995, "\u3057\u3087\u3046": 43156, "\u77ed\u3044": 23435, "##\u7dd2": 10482, "\u5bfa\u793e": 4308, "\u8358": 18094, "##\u53b3": 7522, "\u3054\u304f": 15078, "##\u306d": 31792, "\u3053\u3046\u3058": 2861, "\u8457": 9690, "\u793a": 4248, "\u7121\u304f\u306a\u3063": 4601, "\u63fa\u308c": 6155, "\u4f4e\u3044": 32593, "\u5357\u5317\u671d": 6837, "\u963f": 25080, "##\u88dc": 3758, "\u9063": 8144, "##\u9063": 3884, "\u59ff\u52e2": 20162, "\u6c42\u3081\u308b": 27115, "\u8e0f\u8972": 7946, "\u4e00\u5927": 4204, "\u9f5f": 667, "##\u9f6c": 666, "\u56f3": 43765, "##\u5c45": 17040, "\u30a4\u30a8\u30ba\u30b9": 3454, "\u7de8\u7e82": 13004, "##\u4f1a": 33230, "\u4fa1\u5024": 30072, "154": 10940, "\u674e": 41391, "\u6c0f": 190179, "\u6377": 2456, "167": 13439, "\u5099\u3048\u308b": 8343, "\u5951": 2781, "##\u6c96": 547, "\u6ce8\u91c8": 8112, "\u884c\u3044": 74818, "##\u6feb": 43, "169": 14468, "\u63b2": 2939, "\u696b": 273, "\u68af": 1666, "##\u3052\u3093": 3540, "176": 17059, "\u6751\u7530": 5090, "##\u6d77": 42873, "\u62fe": 5059, "##\u3057\u3085\u3046": 4150, "\u88dc\u5b8c": 4589, "\u677e\u6c38": 3599, "\u8c9e": 28882, "##\u5fb3": 36091, "166": 14560, "##2": 127080, "\u76ca": 8944, "##\u8ed2": 1290, "\u91c8": 3745, "1700": 4064, "##\u8457": 6040, "171": 17326, "\u7d42\u59cb": 3934, "\u7a4f\u5065": 2657, "\u8cab": 10939, "\u7fa9": 95208, "##\u8a73": 1222, "\u66f2": 255798, "##\u89e3": 18857, "\u6392": 14539, "\u8cc0\u8302": 2820, "\u771f": 95521, "\u8003": 7519, "1789": 3140, "\u5ef6": 21749, "\u7e2e": 8558, "##\u3070\u3059": 1315, "\u4ea4\u66ff": 3139, "\u6feb": 1685, "\u3059\u305a\u304d": 2516, "\u3042\u304d\u3089": 6882, "181": 14922, "\u8208\u5473": 33497, "\u529f\u7e3e": 18327, "177": 22369, "400": 32936, "\u3076\u308a": 70921, "\u623b\u3057": 6002, "\u65bc": 5968, "\u4e4e": 504, "\u8efd": 34175, "##\u3061\u3087\u3046": 4725, "182": 7034, "##7": 129485, "\u691c\u8a3c": 9677, "\u6210\u679c": 16660, "\u4e0a\u3052": 22318, "\u4e00\u89a7": 57137, "##\u3082": 30897, "\u601d": 11688, "##\u307e\u308c": 4488, "\u5bcc\u58eb": 33290, "##\u8c37": 58794, "##\u7ae0": 19518, "\u88c5": 14383, "##\u305d": 27976, "\u633f": 3108, "##\u3056\u3057": 2704, "\u811a": 26207, "\u7d50": 20584, "##\u3086": 9915, "\u3044\u3057": 9623, "\u7acb\u3066": 34361, "\u5275": 15044, "\u6e80\u3061": 5377, "\u5f15\u304d": 42993, "##\u5408\u3044": 23735, "\u6d3b": 13812, "##\u7d9a": 9849, "\u8b5c": 7760, "1803": 3150, "##\u5ead": 10819, "1806": 3187, "\u5f15\u304d\u7d99\u304c": 9601, "\u76f2": 6195, "##\u5fc3": 36802, "\u8db3\u7acb": 5126, "\u6307": 22471, "##\u5357": 30350, "1844": 3276, "##\u8c8c": 2449, "\u77f3\u585a": 1291, "\u9f8d": 41625, "##\u9ebf": 2394, "##\u8def": 32027, "\u304a\u304f": 15600, "\u3084\u307e": 31354, "\u307f\u3061": 8875, "\u9577\u3089\u304f": 11024, "\u5148\u99c6": 6324, "\u5fdc\u7528": 17375, "\u304b\u3048\u3063\u3066": 3079, "\u84c4\u7a4d": 6794, "\u640d": 11274, "##\u306a\u3046": 4036, "\u541f": 3380, "##\u5473": 21892, "1889": 11905, "1897": 9453, "\u9ad8\u7b49": 151830, "\u5ba4": 88824, "\u4e0a\u7530": 11688, "\u521d\u4ee3": 62050, "\u4e3b\u4efb": 11056, "\u4f75\u5408": 10715, "\u73fe\u5730": 27758, "\u7687": 15944, "##\u6c11": 21343, "\u63a8\u9032": 37328, "\u7c21\u6613": 10900, "\u5354": 11375, "##\u548c": 48778, "\u5317\u671d\u9bae": 18412, "\u97d3\u56fd": 82309, "\u9ad8\u9f62": 14535, "\u6226": 418713, "\u30e1\u30ad\u30b7\u30b3": 30892, "\u7bc9\u304b": 6109, "\u82e5\u5e74": 4989, "\u6e21\u822a": 3686, "\u4f01\u696d": 116364, "\u52e4\u52d9": 35103, "\u52b4\u50cd": 88833, "\u98db\u8e8d": 4373, "\u56fd\u5185\u5916": 6929, "\u6a5f\u4f1a": 37730, "\u30af\u30fc\u30eb": 9366, "\u30b8\u30e3\u30d1\u30f3": 31436, "\u30a2\u30cb\u30e1\u30fc\u30b7\u30e7\u30f3": 21250, "\u30b2\u30fc\u30e0": 220679, "J": 114743, "POP": 4510, "##\u697d": 31789, "\u97f3\u697d": 211726, "\u30b5\u30d6": 22286, "##\u30ab\u30eb": 29537, "##\u30c1\u30e3\u30fc": 20900, "\u30ab\u30c3\u30b3": 3544, "\u611f\u3058\u308b": 10283, "\u89e6\u308c\u308b": 5351, "\u8a2a\u554f": 23944, "\u89b3\u5149": 65196, "\u5e83\u544a": 28673, "\u65bd\u8a2d": 133573, "\u5e97\u8217": 53125, "\u5f93\u696d": 14302, "\u54e1": 140778, "##\u5947": 3115, "\u66f8\u7c4d": 23875, "##\u308d\u3057": 3950, "\u3075\u3068": 3507, "\u5fc3": 92599, "\u8eca": 395392, "\u304b\u304b": 9113, "\u3082\u3066": 4188, "\u304b\u304d": 6035, "\u3044\u3084": 6424, "##\u983c": 9090, "\u9ac4": 3127, "##\u8133": 4714, "\u4ff3\u4eba": 2945, "\u5b89": 69954, "##\u5ba4": 29073, "\u6279": 526, "##\u6b63": 32811, "\u304b\u305f": 11548, "##\u3053\u3068": 1433, "165": 15597, "800": 22214, "\u82a5\u5ddd": 3434, "\u9f8d\u4e4b\u4ecb": 1628, "\u6f84": 6644, "##\u6c5f": 36383, "\u96d1": 21346, "\u5b89\u3044": 6232, "\u6563\u898b": 2395, "\u53ce\u96c6": 18336, "\u6d45\u91ce": 6850, "\u5df7": 1136, "##\u5bdf": 5978, "1933": 20114, "1951": 23350, "\u76e3\u4fee": 6372, "\u5275\u520a": 21250, "\u9ad8\u307e\u3063": 8799, "\u64c1\u8b77": 7356, "\u6d3b\u767a": 12386, "\u5b87\u91ce": 3248, "##\u8b70": 19772, "\u6bce": 24836, "1955": 25785, "##\u8b58": 6112, "\u30cb\u30c3\u30dd\u30f3": 13252, "##\u30db\u30f3": 9438, "##\u30c3\u30bb\u30f3": 3991, "##\u30fb\u30b8\u30e5": 3219, "\u92ad": 11138, "\u53ef": 30519, "##\u5426": 3663, "\u5982": 9399, "##\u5b9f": 25197, "\u6295": 19561, "\u4e16\u8ad6": 6578, "1977": 34449, "2002": 83427, "\u30d6\u30fc\u30e0": 15008, "\u652f\u3048\u308b": 6886, "\u77db": 1224, "##\u5148": 20282, "\u5f80": 9507, "##\u3005": 60919, "\u5411\u304b\u3046": 32143, "\u5275\u51fa": 2911, "\u9055\u548c": 3623, "\u4e95\u4e0a": 18463, "\u3055\u3089\u3055": 4091, "\u4e00\u6642": 42543, "\u8981\u56e0": 16848, "\u81ea\u5df1": 41063, "\u307e\u3058": 4231, "\u30ce\u30ea": 4314, "\u697d\u3057\u3080": 7975, "\u6d88\u8cbb": 33782, "\u5a2f\u697d": 6247, "\u7523\u7269": 4375, "\u751f\u7523": 112992, "\u5bdf": 2872, "##\u3093\u3058": 7098, "K": 142580, "##Y": 63339, "\u6050\u308c": 21821, "\u5c11\u5973": 40552, "\u5e2f\u3073": 7101, "\u307e\u3093\u304c": 5794, "\u66f8\u4f53": 2969, "##\u6839": 26062, "##\u771e": 171, "1974": 35619, "1978": 36654, "\u6025\u6fc0": 8083, "\u958b\u59cb": 212307, "\u30d8": 45612, "##\u91d8": 356, "\u66f8\u3044": 63717, "\u4e0b\u624b": 7365, "##\u30a6\u30de": 2829, "\u30de\u30b9\u30b3\u30df": 9326, "##\u30d9\u30ea": 8336, "\u5927\u4eba": 17748, "\u78ba\u5b9f": 12426, "\u7df4\u7fd2": 45029, "\u30ae\u30e3\u30eb": 3536, "\u643a\u5e2f": 30320, "\u30e1\u30fc\u30eb": 25780, "\u30c7\u30b8\u30bf\u30eb": 37173, "\u3055\u3088": 1583, "##\u306a\u3089": 2779, "\u00b1": 2163, "\u30d1\u30bd\u30b3\u30f3": 20174, "##^": 17936, "##_": 12409, "##)": 40209, "##\u300d": 9979, "\u5165\u308c\u308b": 16445, "\u611f\u60c5": 17241, "\u96fb\u8a71": 60943, "\u5b9f\u88c5": 15619, "\u5229\u7528": 210099, "\u7f6e\u304d\u63db\u3048": 12693, "\u308e": 155, "\u90e8\u6d3b": 1913, "\u5bc4\u305b\u308b": 1702, "1947": 27390, "\u70b9\u6570": 5552, "\u89e3\u8aac": 50162, "1994": 56575, "\u5e74\u9593": 152806, "1957": 23925, "\u5ca9\u6ce2": 3048, "\u65b0\u66f8": 2425, "77": 20806, "\u624d": 9303, "\u65b0\u6f6e": 5060, "50": 108076, "1999": 70531, "190": 4456, "\u30d9\u30b9\u30c8": 54247, "\u30bb\u30e9\u30fc": 7848, "2008": 150858, "2001": 80894, "\u9f4b\u85e4": 2043, "##\u601d": 2294, "140": 11955, "\u754c": 68009, "##\u524d": 33151, "##\u3060\u3057": 7268, "2004": 104395, "\u5317\u539f": 2193, "\u4fdd": 31856, "##\u7de8": 5325, "##\u4fee": 10673, "\u66f8\u5e97": 15826, "\u7fcc": 85075, "\u756a\u7d44": 290699, "\u5927\u534a": 28717, "\u30b3\u30e1\u30f3\u30c6\u30fc\u30bf\u30fc": 2888, "\u30bf\u30e2\u30ea": 1987, "##\u30dd": 50565, "##\u30cb\u30ab": 7613, "\u30ed\u30b4": 17710, "\u30d5\u30b8": 37427, "\u30af\u30a4\u30ba": 14294, "TBS": 29685, "\u4e09\u5b85": 4809, "\u3053\u304f": 13153, "\u30c9\u30ea\u30eb": 1700, "Mat": 6848, "##th": 41902, "##w": 70720, "Best": 4518, "Hi": 13776, "TV": 31282, "\u4ead": 9526, "\u671d\u65e5": 46943, "\u5408\u683c": 33105, "\u30dc\u30fc": 23971, "##\u30c0\u30fc": 72921, "##\u30e9\u30a4\u30f3": 8651, "\u304a\u3058": 5416, "##\u30c3\u30c8": 101140, "\u587e": 14235, "\u63d0\u8d77": 4432, "\u5fd7\u8cc0": 3560, "##\u54c9": 7297, "\u7a0b": 19578, "1988": 48647, "\u6240\u9577": 8327, "##\u5143": 53209, "##\u7d04": 16627, "\u52a3": 7289, "##\u7b49": 6401, "\u80cc\u666f": 42326, "\u6d88\u6975": 3578, "\u500b\u6027": 8334, "\u5916\u4ea4": 28792, "\u5b98": 179840, "\u990a\u6210": 14503, "\u56fd\u52d9": 10888, "\u4e0b\u90e8": 19238, "For": 13692, "##ign": 10740, "Service": 3115, "Instit": 2964, "##ute": 10526, "FS": 5453, "##I": 86210, "\u30ec\u30d9\u30eb": 44972, "\u6642\u9593": 277227, "\u639b\u304b\u308b": 2697, "\u30e9\u30a4": 29424, "##\u30b7\u30e3\u30ef": 611, "##\u6670": 671, "\u6f0f": 4138, "##\u3089\u3059": 7082, "\u963b": 2113, "##\u6b27": 3717, "\u95a2\u308f\u308b": 14262, "\u30b8\u30e7\u30fc\u30af": 2656, "\u30d0\u30b9\u30af": 6598, "\u30d0\u30a4": 36175, "##\u30e8\u30f3": 10956, "##\u30cc": 76035, "\u535a\u7269": 44046, "\u60aa\u9b54": 12820, "\u30b5\u30bf\u30f3": 1813, "\u633f\u7d75": 6115, "\u98fe\u3089": 3736, "\u30af\u30e9": 28141, "##\u30b6\u30fc\u30ba": 3609, "209": 2770, "45": 55025, "\u30bf\u30f3": 24747, "\u30b9\u30c6\u30a3\u30fc\u30eb": 3025, "\u30b0\u30ea\u30fc\u30f3": 29175, "##\u30d0\u30fc\u30b0": 12563, "\u5c0e\u304b": 3465, "\u89d2\u7530": 2285, "\u592a": 46359, "130": 14067, "\u9054\u3057": 27086, "\u30b8\u30e3\u30fc\u30ca\u30ea\u30b9\u30c8": 11587, "\u606d": 7909, "##\u4e09": 35441, "\u7f6e\u304f": 36553, "\u59a5\u5f53": 4088, "\u7121\u8996": 13570, "\u89aa\u3057\u307f": 3176, "\u5eb6\u6c11": 9603, "\u3082\u3061\u308d\u3093": 17258, "##\u6bd4": 7297, "\u97d3": 10643, "##\u771f": 13087, "\u30de\u30e4": 4263, "\u30d2": 64249, "##\u30a8\u30ed": 4173, "##\u30b0\u30ea": 15067, "\u7db4": 3929, "\u4e26\u5217": 4386, "\u3082\u3064": 25452, "\u5de7\u307f": 4364, "\u7d44\u307f\u5408\u308f\u305b\u308b": 3041, "\u30ab\u30ca": 11702, "\u30ab\u30a4": 16449, "\u8ad6\u4e89": 14006, "\u7d76\u3048": 7385, "\u7267": 15417, "\u5217\u6319": 4252, "\u3068\u3069\u307e\u308a": 3276, "##\u30d4\u30a2": 12646, "\u30a6\u30a9\u30fc": 18393, "\u51fa\u6765\u308b": 33822, "\u4fef": 2739, "##\u77b0": 827, "\u6751\u5c71": 4739, "##\u90ce": 37308, "\u77e5\u308b": 21519, "\u7279\u8272": 7989, "\u6bd4\u4f8b": 12296, "\u8eab\u8fd1": 3559, "\u4e0e": 16656, "##\u7c4d": 9896, "\u5929": 92209, "##\u6b66": 30264, "68": 21006, "\u66f8\u7d00": 5968, "\u304a\u308d\u304b": 1832, "\u9038": 7784, "\u3059\u3089": 14563, "\u3042\u308d\u3046": 19469, "\u694a": 13328, "##\u6210": 43267, "\u304d\u308a": 7605, "##\u8a13": 4455, "\u7bc6": 1403, "##\u96b7": 1937, "##\u8c61": 4596, "##\u7bc7": 5444, "\u6a21\u3057": 6752, "##\u9996": 11842, "\u4e00\u5207": 18199, "##\u64b0": 3704, "\u548c\u540d": 6607, "##\u805a": 1330, "\u767e\u79d1": 4370, "##\u5927": 51571, "\u8a00\u3048\u308b": 17447, "\u540c\u66f8": 3946, "\u4ed8\u3055": 3336, "\u6b74": 26145, "\u8a69": 44920, "\u5875": 3270, "##\u888b": 8001, "\u968e\u5c64": 6703, "##\u8a69": 4676, "\u805a": 1036, "##\u5206": 43994, "\u502d": 7446, "##\u5ba3": 5527, "\u6559\u5e2b": 28382, "\u520a\u884c": 43488, "\u6797": 46458, "\u4ff3": 4305, "##\u8ae7": 1783, "\u4e16\u8a71": 9606, "\u5c3d": 1268, "\u5fd7": 36206, "\u5e03": 21300, "##\u304c\u304d": 4297, "\u51a0": 31340, "##\u73fe": 5082, "\u5c0f\u578b": 33865, "\u7db2\u7f85": 2566, "##\u91c8": 5418, "\u6a21\u7bc4": 2506, "\u91d1\u6ca2": 17164, "\u5e84": 14496, "##\u4e09\u90ce": 17254, "##\u574a": 7025, "\u8c6a": 13522, "\u57f7\u7b46": 35433, "\u4e2d\u578b": 6193, "\u6226\u524d": 16967, "\u677e\u4e95": 7343, "\u6cbb": 28699, "\u53d7\u3051\u5165\u308c": 24441, "\u677e\u6751": 2493, "\u5927\u578b": 51359, "\u304c\u304f": 7189, "##og": 11653, "##f": 100624, "##ia": 45926, "\u7a7a\u9593": 46078, "\u7269\u7406": 34594, "\u4eba\u6587": 5793, "\u8fb2\u8015": 3741, "\u30ae\u30ea\u30b7\u30a2": 21589, "\u90e8\u9580": 65771, "\u6e90\u6d41": 5926, "\u8a18\u8f09": 50303, "##\u8a8c": 5587, "\u6c17\u5019": 25393, "\u6d77\u6d0b": 16200, "\u505c\u6ede": 4105, "\u9769\u547d": 51064, "\u89b3\u6e2c": 43789, "\u6a5f\u5668": 36570, "\u5c0e\u3044": 6724, "\u304a\u3053": 7557, "\u30a2\u30ec\u30af\u30b5\u30f3\u30c0\u30fc": 6120, "\u30d5\u30a9\u30f3": 35970, "\u30d5\u30f3": 5400, "##\u30dc\u30eb\u30c8": 2902, "\u30ab\u30fc\u30eb": 30742, "\u30ea": 79883, "##\u30c3\u30bf\u30fc": 15501, "\u79fb\u5165": 2910, "\u30c7\u30fc\u30bf": 73601, "\u8a08\u91cf": 4714, "\u7af6\u4e89": 18104, "\u6557\u308c": 52210, "\u5317\u7c73": 15656, "\u4e00\u65e6": 14546, "\u30b7\u30b9\u30c6\u30e0": 132816, "GI": 13013, "\u7d30\u304b\u304f": 4025, "\u751f\u614b": 15845, "\u6c17\u8c61": 17962, "\u5730\u8cea": 11039, "\u9023\u643a": 19768, "\u8fd1\u96a3": 16426, "\u306a\u3089\u3073": 10866, "\u30d5\u30a3\u30fc\u30eb\u30c9": 23671, "##\u30ef\u30fc\u30af": 7196, "\u30a8\u30af\u30b9": 13801, "##\u30ab\u30fc": 40862, "\u5de1": 18463, "##\u691c": 5301, "\u3042\u3052\u308b": 7630, "\u53b3\u683c": 5500, "\u5730\u5f62": 16956, "\u4e8b\u8c61": 4833, "\u5c02\u9580": 97541, "\u53d6\u308a\u6271\u3046": 5712, "\u5730\u56f3": 14929, "\u8003\u5bdf": 6739, "\u6709\u52b9": 28331, "\u3064\u306a\u304c\u308b": 8938, "\u62db\u5f85": 14081, "\u30c1\u30e5\u30fc": 10660, "##\u30cd\u30f3": 13055, "\u30af\u30ea\u30b9": 12034, "\u8a2d\u7f6e": 166907, "\u7406\u5b66": 9631, "\u5b66\u90e8": 8367, "\u30b3\u30fc\u30b9": 44034, "1989": 51754, "\u8981\u9818": 3141, "\u5fc5": 5439, "\u751f\u5f92": 47605, "\u96c6\u4e2d": 27029, "##\u758e": 1903, "\u8fb2\u696d": 43399, "\u65b0\u8208": 6975, "\u6e29\u6696": 7177, "\u7570\u5e38": 16723, "\u30d2\u30fc\u30c8": 3945, "\u30a2\u30a4\u30e9\u30f3\u30c9": 7953, "\u6d25\u6ce2": 8756, "\u6d2a\u6c34": 11421, "\u30ab\u30d0\u30fc": 27372, "\u5b66\u79d1": 23595, "\u79d1": 157525, "\u6539\u79f0": 35272, "\u5c02\u653b": 23454, "##\u969b": 5533, "\u5b66\u4f1a": 33328, "\u30e2\u30c7": 6407, "\u591a\u89d2": 2799, "EU": 9779, "\u56de\u907f": 28232, "\u304f\u306b": 5369, "\u3044\u3061": 20342, "\u3089\u3093": 8642, "\u5426": 8826, "\u30e2\u30f3\u30c6": 10611, "##\u30d3": 80656, "##\u30c7\u30aa": 4250, "\u6761\u7d04": 52802, "##\u5dde": 59774, "\u8af8\u56fd": 29411, "\u7de0\u7d50": 21811, "\u8981\u4ef6": 9981, "\u6c38": 43634, "\u4ed6\u56fd": 6336, "\u6e80\u305f\u3057": 5959, "\u63b2\u8f09": 65262, "\u52a0\u76df": 32175, "\u61b2\u7ae0": 3898, "193": 2025, "\u30f5": 3180, "\u7dcf\u4f1a": 12617, "\u30aa\u30d6": 47120, "##\u30b6\u30fc": 42545, "##\u30d0\u30fc": 67765, "\u5236\u5ea6": 74073, "\u4e8b\u52d9": 90967, "\u5b9f\u8df5": 12909, "San": 5409, "##B": 74185, "##ox": 6246, "\u30d1\u30ea": 60451, "\u5df4": 4920, "\u30a4\u30eb": 11134, "##\u5e9c": 15681, "\u30b3\u30df\u30e5\u30fc\u30f3": 8523, "\u540c\u56fd": 11069, "\u30ed\u30f3\u30c9\u30f3": 58456, "\u30eb\u30fc": 31672, "##\u30f4\u30eb": 4678, "\u7f8e\u8853": 73754, "\u56de\u308a": 10017, "\u884c\u653f": 83707, "\u30a8\u30b9\u30ab": 2397, "##\u30a8\u30fc\u30eb": 6445, "\u57ce\u58c1": 5272, "\u8de1": 35970, "\u74b0\u72b6": 10761, "\u9ad8\u901f": 64133, "\u9053\u8def": 112573, "\u5185\u5074": 11861, "\u5e02\u8857": 31859, "\u9762\u7a4d": 45209, "99": 18114, "km": 135652, "\u5c71\u624b": 4806, "\u30cb\u30e5\u30fc\u30e8\u30fc\u30af": 72809, "\u30de\u30f3\u30cf\u30c3\u30bf\u30f3": 6340, "\u5916\u5074": 11676, "##\u30cb\u30e5": 12221, "\u30f4\u30a1\u30f3": 21439, "105": 10315, "##\u30b9\u30bf": 26512, "\u76c6\u5730": 9140, "\u5e02\u5185": 17577, "\u30bb\u30fc\u30cc": 2563, "\u8cab\u304f": 2502, "\u5e73\u5766": 5156, "\u6a19\u9ad8": 22582, "\u6700\u4f4e": 18608, "\u5ddd\u6cbf\u3044": 3360, "35": 58788, "\u30e1\u30fc\u30c8\u30eb": 64821, "\u6700\u9ad8": 104155, "\u30e2\u30f3": 28034, "##\u30de\u30eb": 14383, "##\u30c8\u30eb": 21087, "\u4e18": 23049, "\u5317\u7def": 4174, "49": 28468, "\u7def\u5ea6": 3866, "\u6e29": 20618, "\u5927\u897f": 17012, "##\u897f": 27257, "\u897f\u5cb8": 4808, "\u541b\u81e8": 2706, "\u30b7\u30f3\u30af": 3837, "\u30bf\u30f3\u30af": 15759, "2020": 111945, "\u30e9\u30f3\u30ad\u30f3\u30b0": 36770, "500": 55302, "\u672c\u793e": 46653, "\u51cc": 6572, "\u6700\u591a": 22701, "\u91d1\u878d": 29783, "\u30bb\u30f3\u30bf\u30fc": 115526, "\u30d5\u30e9\u30f3\u30af\u30d5\u30eb\u30c8": 6332, "\u5c48\u6307": 4480, "\u5efa\u7269": 53011, "\u30dd\u30f3": 18355, "##\u30d4": 46937, "\u4e00\u6d41": 3958, "\u81a8\u5927": 6187, "\u89b3\u8cde": 2818, "\u30d0\u30ec\u30a8": 13367, "\u5287\u56e3": 20481, "\u516c\u6f14": 54319, "\u5c45\u4f4f": 26013, "##\u30b8\u30e3\u30f3": 5225, "##\u30e4\u30f3": 8369, "##\u30b8\u30a7": 41557, "\u30a4\u30f3\u30c9\u30b7\u30ca": 2634, "##\u6771": 27326, "\u6771\u6b27": 3218, "\u4eba\u7a2e": 15746, "\u5e02\u57df": 5468, "290": 3187, "\u7d76": 18234, "##\u9802": 5474, "\u8ee2\u3058": 19793, "2011": 153045, "225": 3404, "IN": 15586, "##SE": 7588, "\u8fd1\u90ca": 17454, "200": 56435, "\u8d85\u3048": 24734, "\u6a19": 10802, "Fl": 11782, "##uc": 8865, "ne": 10850, "##c": 52885, "me": 38761, "##r": 187606, "##it": 41886, "##ur": 43541, "##l": 92063, "e": 59523, "##st": 52466, "##att": 4991, "le": 13522, "fl": 5616, "##ot": 19634, "m": 246013, "##ais": 3413, "##omb": 1574, "##as": 35590, "\")": 110939, "\u7d0b\u7ae0": 11563, "\u6c34\u4e0a": 11633, "\u5546\u4eba": 15162, "\u7d44\u5408": 48468, "\u8239": 124397, "##\u4e57\u308a": 3877, "\u6226\u4e71": 2564, "\u8352": 20057, "##\u6ce2": 29687, "\u629c\u3044": 7075, "\u5e02\u6c11": 54308, "\u591a\u767a": 7372, "\u30c6\u30ed": 16113, "\u8857": 83459, "##\u89d2": 27940, "\u63b2\u3052": 16910, "Par": 6897, "##is": 72381, "##ii": 6358, "##\u30fc\u30b9": 20879, "##ius": 3929, "\u7530\u820e": 7512, "\u4e71\u66b4": 1712, "\u30b1\u30eb\u30c8": 3636, "\u547c\u79f0": 30686, "\u75d5\u8de1": 5533, "\u3068\u3069\u3081": 3704, "##\u30fc\u30ba": 30655, "##ig": 22458, "##\u30fc\u30b8": 7635, "\u30d5\u30a3\u30f3\u30e9\u30f3\u30c9": 17281, "##\u30c6\u30a3\u30a2": 15749, "##\u30aa\u30fc": 18676, "##\u30eb\u30e0": 4599, "Lu": 8266, "##te": 63783, "##ti": 70024, "##ior": 3701, "##um": 37954, "##\u65cf": 9777, "\u6d41\u308c\u308b": 22576, "##\u6d32": 10312, "\u6e21": 24441, "##\u6cb3": 19468, "\u7d00\u5143": 50462, "\u3054\u308d": 27144, "\u96c6\u843d": 32254, "\u30ac\u30ea\u30a2": 4129, "\u5de6\u5cb8": 5554, "\u5186\u5f62": 7355, "\u5287\u5834": 65923, "\u95d8": 10702, "##\u6280": 12400, "\u516c\u8846": 6887, "\u6d74": 11514, "\u907a\u8de1": 29772, "\u30a2\u30ec": 20099, "##\u30fb\u30c9": 14620, "##\u30fb\u30ea": 10303, "##\u30c6\u30b9": 11425, "##\u5834": 46444, "\u653e\u68c4": 14516, "\u57ce": 159266, "##\u585e": 3001, "\u3053\u308d": 28072, "\u30d5\u30e9\u30f3\u30af": 17455, "##\u30f4\u30a3\u30b9": 5791, "\u5f81\u670d": 12982, "\u30e1\u30ed": 4934, "##\u30f4\u30a3\u30f3\u30b0": 2927, "\u671d": 119694, "\u6b7b\u5f8c": 27080, "\u5206\u88c2": 18976, "\u30b7\u30e3\u30eb\u30eb": 10607, "##\u30de\u30fc": 44401, "\u5927\u5e1d": 2349, "\u30e9\u30a4\u30f3": 67357, "\u6d41\u57df": 15755, "88": 17699, "\u30f4\u30a1\u30a4": 12001, "##\u30ad\u30f3\u30b0": 14365, "\u8972\u6483": 20864, "\u91d1\u92ad": 7877, "\u652f\u6255\u3063": 3350, "\u8b1b\u548c": 6535, "##\u671b": 18966, "\u4ee3\u308f\u3063": 17042, "\u6a29\u5a01": 10493, "\u53f3\u5cb8": 5394, "\u65ad\u7d76": 6033, "98": 19330, "\u63a8\u6319": 3076, "\u738b\u6a29": 4053, "\u5f37\u5316": 39374, "\u738b\u5bae": 3218, "\u5bae": 53260, "\u5efa\u7bc9": 78510, "\u30d5\u30a3\u30ea\u30c3\u30d7": 12673, "##\u30b9\u30c8": 75778, "\u8981\u585e": 14704, "\u5bae\u6bbf": 14015, "\u30b9\u30b3": 12427, "\u53f8\u6559": 17042, "\u5ea7": 74415, "\u8056\u5802": 16246, "1200": 7477, "\u627f\u8a8d": 28447, "\u795e\u5b66": 10391, "\u8457\u540d": 23825, "\u5e02\u5834": 53858, "\u30a2\u30eb": 79526, "Le": 22482, "Hall": 2297, "##es": 39525, "##\u3053": 77992, "\u539f\u578b": 8658, "\u7d50\u6210": 77966, "\u5e02\u9577": 29339, "\u5e02\u653f": 3086, "\u53f8\u308b": 2381, "\u30eb\u30a4": 26972, "\u30b5\u30f3\u30c8": 5369, "\u30b7\u30e3": 40471, "\u30ce\u30fc\u30c8": 14237, "##\u30c0\u30e0": 10232, "\u4e00\u5fdc": 4158, "\u5897\u3084\u3057": 7373, "\u5c45\u57ce": 4903, "\u6a5f\u69cb": 44925, "\u968f\u4e00": 2024, "##\u30ed\u30ef": 5434, "132": 6896, "\u5951\u6a5f": 9560, "\u767e": 38371, "\u6700\u4e2d": 12174, "##\u30c6\u30a3\u30a8": 7172, "\u30de\u30eb": 39400, "##\u30bb\u30eb": 18256, "\u5339\u6575": 4274, "135": 9717, "138": 6781, "\u7bc9\u3044": 12596, "\u30b5\u30f3": 101458, "##\u30ef\u30fc": 20025, "\u30d0\u30b9": 183028, "##\u30c6\u30a3\u30fc": 24505, "##\u30e6": 24732, "\u7262": 3394, "##\u7344": 3622, "\u738b\u65cf": 5184, "\u78ba\u4fdd": 35703, "\u3081\u3050\u3063": 6323, "\u30aa\u30eb": 27651, "##\u30ec\u30a2\u30f3": 2777, "\u30a2\u30eb\u30de": 5978, "##\u30cb\u30e3": 22963, "##\u30c3\u30af": 94203, "\u983c\u3063": 4288, "\u540c\u76df": 45310, "\u30d6\u30eb\u30b4\u30fc\u30cb\u30e5": 3240, "\u30a4\u30f3\u30b0\u30e9\u30f3\u30c9": 40728, "\u5dfb\u304d\u8fbc\u3093": 2095, "\u30b8\u30e3\u30f3\u30cc": 3224, "\u30c0\u30eb": 14056, "\u6d3b\u8e8d": 99221, "143": 6991, "\u30a2\u30e9": 21650, "\u548c\u89e3": 8610, "\u7387\u3044\u308b": 30511, "\u8ecd": 420627, "\u596a\u9084": 6513, "\u6539\u3081\u3066": 11442, "\u9665\u843d": 13896, "\u4f4f\u307e": 4053, "\u30d6\u30ed": 14449, "##\u30dc": 62988, "##\u30ef\u30fc\u30ba": 4048, "\u30ed\u30ef": 5541, "\u6e13\u8c37": 7758, "\u597d\u3093": 6989, "\u30d5\u30e9\u30f3\u30bd\u30ef": 7025, "\u30b7\u30e3\u30f3": 15365, "\u30dc\u30fc\u30eb": 34010, "##\u30d6\u30ed": 14423, "\u516c\u5f0f": 95148, "152": 11394, "\u30b3\u30ec": 10683, "##\u30fc\u30b8\u30e5": 8934, "\u8ab2\u7a0b": 34698, "\u30ea\u30d9\u30e9\u30eb": 3816, "\u30a2\u30fc\u30c4": 5327, "\u671b\u3093": 8732, "\u30e6\u30b0": 2150, "##\u30ce\u30fc": 20823, "\u62e0\u70b9": 51238, "157": 15853, "\u30d0\u30eb": 33447, "##\u30c6\u30eb": 20786, "##\u30df": 94673, "\u8650\u6bba": 9373, "\u30d7\u30ed\u30c6\u30b9\u30bf\u30f3\u30c8": 8899, "\u6bba\u5bb3": 33168, "\u7d99\u3044": 19324, "\u30a2\u30f3\u30ea": 7962, "\u5e73\u548c": 32205, "\u89e3\u6c7a": 31904, "\u6a21\u7d22": 6314, "\u6c11\u8846": 10424, "\u53cd\u4e71": 27328, "\u30d0\u30ea": 13865, "##\u30b1\u30fc\u30c9": 2230, "158": 17095, "\u5f37\u5236": 26128, "\u8ffd\u653e": 19656, "Se": 25458, "##iz": 11395, "\u62db\u3044": 9823, "\u6697\u6bba": 19031, "\u30d6\u30eb\u30dc\u30f3": 2448, "159": 15637, "\u5373\u4f4d": 22485, "\u56de\u5fa9": 29951, "\u516c\u5171": 33630, "\u4e8b\u696d": 182750, "##\u30d6\u30eb": 35957, "\u62e1\u5f35": 29694, "\u30f4\u30a9\u30fc": 8175, "##\u30b8\u30e5": 27240, "\u5e83\u5834": 21761, "##\u30d5\u30a3\u30fc": 11192, "\u75c5\u9662": 69367, "\u5efa\u8a2d": 150349, "\u30b8\u30a7\u30eb": 3587, "\u30ec\u30fc": 20823, "\u6cbb\u4e16": 9305, "\u30de\u30ea\u30fc": 15659, "\u30e1\u30c7\u30a3": 5203, "##\u30b7\u30b9": 14587, "##\u30a4\u30eb": 12931, "\u30ea\u30e5": 11702, "##\u30af\u30b5": 5728, "##\u30d6\u30fc\u30eb": 3843, "##\u30b7\u30e5": 71414, "##\u30ea\u30e5\u30fc": 3668, "##\u30ec": 144925, "##\u30a4\u30e4": 7641, "\u30bd\u30eb": 6748, "##\u30dc\u30f3": 15572, "\u6539\u7bc9": 6861, "\u30d5\u30ed\u30f3": 2847, "##\u30c9": 236841, "\u4e71": 37951, "\u53cd\u52d5": 4022, "\u8cb4\u65cf": 43372, "\u6253\u5012": 4039, "\u738b\u653f": 3961, "\u30f4\u30a7\u30eb": 14343, "##\u30b5\u30a4": 19165, "\u79fb\u3057": 14690, "\u8ca1\u52d9": 14311, "\u7dcf\u76e3": 4495, "\u30b8\u30e3\u30f3": 28468, "##\u30c6\u30a3\u30b9\u30c8": 2464, "\u30b3\u30eb": 28840, "##\u30d9\u30fc\u30eb": 6589, "\u8c6a\u83ef": 6637, "\u4f5c\u308a\u4e0a\u3052": 5477, "##\u5175": 27792, "\u597d\u307e": 7686, "\u57f7\u653f": 9149, "\u8d8a\u3048": 16933, "\u534a\u3070": 19917, "000": 89769, "\u68df": 20100, "\u79fb\u308b": 6705, "\u3044\u3063\u305f\u3093": 6034, "172": 15695, "\u518d\u5ea6": 19770, "\u3057\u307e\u3046": 88378, "175": 19370, "\u30a8\u30b3\u30fc": 3875, "\u30df\u30ea": 14353, "\u30c6\u30fc\u30eb": 4372, "\u5275\u8a2d": 49349, "##\u30f4\u30a3\u30a8": 6613, "##\u30aa\u30f3": 19815, "178": 21578, "1790": 2833, "\u30d5\u30a7\u30eb": 12796, "\u30b8\u30a7\u30cd": 5231, "\u30ed\u30fc": 52772, "\u3084\u306f\u308a": 17862, "64": 30664, "\u5553\u8499": 3992, "\u30f4\u30a9\u30eb": 8564, "##\u30c6\u30fc\u30eb": 4155, "##\u30bd\u30fc": 13321, "##\u30c9\u30ed": 11117, "##\u30b9\u30ad": 8081, "##\u30e5\u30fc": 23305, "\u5bfe\u6297": 31593, "\u5897\u7bc9": 3146, "\u6539\u4fee": 23135, "\u7e41\u83ef": 2748, "##\u3064\u3051": 21268, "\u6025\u9032": 4323, "\u52c3\u767a": 17472, "\u884c\u9032": 6733, "\u623b\u3055": 5366, "179": 16010, "\u770c\u5e81": 4963, "\u6df7\u4e71": 22922, "1800": 7373, "54": 33528, "\u30ca\u30dd\u30ec\u30aa\u30f3": 12705, "\u3079\u304f": 24254, "\u5e1d\u90fd": 2251, "##\u30bc\u30eb": 12668, "\u51f1\u65cb": 5319, "\u9580": 61274, "\u30a8\u30c8": 4299, "##\u30ef\u30fc\u30eb": 8295, "\u5efa\u3066": 42940, "\u904b\u6cb3": 12771, "\u958b\u524a": 2436, "\u5e1d\u653f": 3786, "\u5fa9\u53e4": 2853, "\u653f": 55506, "##\u932f": 2004, "\u5b89\u5b9a": 48764, "\u5230\u6765": 4138, "\u7e41\u6804": 8608, "\u30f4\u30a3": 59163, "##\u30af\u30c8\u30eb": 3815, "\u30e6\u30fc\u30b4": 872, "##\u30b6\u30c3\u30af": 3061, "\u30a8\u30df\u30fc\u30eb": 2470, "\u30b9\u30bf\u30f3\u30c0": 883, "##\u8c6a": 3502, "\u30a8\u30c9\u30a5": 3453, "##\u30a2\u30fc\u30eb": 4459, "\u30de\u30cd": 4702, "##\u30b6\u30f3\u30cc": 1368, "\u30e2\u30ea": 10651, "##\u30be": 27450, "\u30b7\u30b9": 7824, "##\u30ec\u30fc": 44632, "\u753b\u5bb6": 28515, "\u30b9\u30fc": 16558, "\u30b4": 37944, "##\u30c3\u30db": 4427, "\u30dd\u30fc\u30eb": 29436, "\u30b4\u30fc": 19617, "##\u30ae\u30e3": 4579, "\u30e9\u30b6": 3010, "1840": 4609, "##\u30d1\u30eb": 6609, "##\u30ca\u30b9": 12371, "\u30aa\u30b9": 20972, "##\u30ea\u30c3\u30c4": 3327, "1846": 3532, "##\u99c5": 9739, "\u30c0\u30f3": 29669, "##\u30d5\u30a7": 28442, "1849": 3676, "\u30ea\u30e8\u30f3": 3758, "\u30b9\u30c8\u30e9": 13862, "\u4ed6\u65b9": 7517, "1841": 3258, "\u653e\u5c04": 24409, "\u8def\u7dda": 136835, "\u3064\u306a\u304e": 3002, "\u88dc\u7d66": 14095, "\u8def": 47351, "\u30d7": 24782, "##\u30c1\u30e5\u30fc": 6681, "1852": 3838, "\u77e5\u4e8b": 38142, "\u30b8\u30e7\u30eb\u30b8\u30e5": 3393, "\u30aa\u30b9\u30de\u30f3": 16288, "\u6539\u9020": 41464, "\u58ca\u3057": 2464, "\u4e00\u65b0": 5046, "##\u6c34": 84505, "\u90fd\u5fc3": 9744, "\u958b\u767a": 252475, "\u6c34\u9053": 10698, "\u30b8\u30a7\u30cd\u30e9\u30eb": 2137, "##\u30be\u30fc": 8661, "\u4f9b\u7d66": 36928, "\u751f\u307e\u308c\u5909": 2740, "\u59ff": 66919, "1860": 7176, "1861": 5946, "141": 6618, "\u666e": 7292, "##\u4ecf": 11876, "\u4e3b\u529b": 21640, "\u6557\u5317": 20364, "1870": 8770, "\u30d7\u30ed\u30a4\u30bb\u30f3": 16081, "\u5305\u56f2": 20673, "1871": 8802, "\u964d\u4f0f": 18354, "\u8702\u8d77": 8217, "\u53f2\u4e0a": 19693, "\u767a\u8db3": 36275, "\u653b\u6483": 128701, "\u304b\u6708": 34887, "\u88ab\u5bb3": 53551, "\u30af\u30ec": 23687, "\u652f\u5e97": 13918, "Ma": 19757, "##ze": 10198, "\u672c\u5e97": 9882, "Let": 3286, "##our": 9792, "##\u9001": 9951, "\u4f01\u3066": 3627, "\u30ed\u30b9": 23486, "##\u30a4\u30eb\u30c9": 1463, "\u5e87\u8b77": 3969, "\u30d0\u30f3\u30af": 21733, "\u72ec\u5360": 12769, "\u30d5\u30e9\u30f3": 15786, "\u5360\u9818": 35489, "\u7a0e": 29531, "##\u50b5": 3233, "\u5f15\u304d\u53d7\u3051": 4831, "\u4e07\u56fd": 4137, "\u535a\u89a7": 9439, "\u958b\u304b": 26560, "\u4e07\u535a": 4294, "\u30a8\u30c3": 9522, "##\u30d5\u30a7\u30eb": 8346, "\u5854": 30475, "\u30e1\u30c8\u30ed": 10956, "\u958b\u696d": 57602, "\u30d9\u30eb": 53462, "\u5149": 109225, "\u5de5\u696d": 75936, "\u9032\u5c55": 7768, "\u6577\u5730": 20723, "\u30eb\u30ce\u30fc": 5742, "##\u30a8\u30f3": 38851, "\u5de5\u5834": 67198, "\u50cd\u304f": 15972, "\u96c6\u307e\u308a": 8917, "\u30d0\u30f3": 30445, "\u8ca1\u56e3": 26259, "\u5f79\u54e1": 14558, "\u767a\u8d77": 3474, "\u96c7\u7528": 17704, "\u6240\u6709": 50569, "##\u5ec9": 2099, "\u4f4f\u5b85": 46961, "\u512a\u79c0": 39341, "\u610f\u5320": 4712, "\u8cde\u91d1": 13626, "\u5f15\u304d\u63db\u3048": 4004, "1912": 15030, "\u30dc\u30f3": 13314, "\u53ef\u6c7a": 7405, "\u8981\u8acb": 23696, "##\u6b3e": 3076, "\u7dd2": 4460, "##\u6226": 33220, "\u76ee\u524d": 3078, "\u8feb": 6071, "\u30dc\u30eb": 21900, "##\u30c9\u30fc": 18374, "\u907f\u96e3": 14885, "\u4f1a\u6226": 2419, "\u52dd\u5229": 105757, "\u514d\u308c": 6981, "\u7832": 55199, "\u7832\u6483": 10994, "\u82b8\u8853": 62640, "\u30dc\u30d8\u30df\u30a2": 4645, "\u60f9": 3022, "\u30ca\u30c1\u30b9": 13778, "1940": 30498, "##\u8840": 17200, "\u30a2\u30c9\u30eb\u30d5": 5883, "\u30d2\u30c8\u30e9\u30fc": 12904, "\u30ec\u30b8\u30b9\u30bf\u30f3\u30b9": 2456, "\u6295\u3058": 7547, "\u5354\u529b": 59829, "##\u72ec": 3288, "\u30b3\u30e9\u30dc": 5806, "\u30e9\u30c8": 4327, "##\u30a5\u30fc": 9765, "\u7cfe\u5f3e": 2522, "\u30ce\u30eb\u30de\u30f3\u30c7\u30a3\u30fc": 3058, "\u4e0a\u9678": 22446, "\u4f5c\u6226": 71552, "1944": 30817, "\u89e3\u653e": 30031, "\u99d0\u7559": 5231, "\u90e8\u968a": 105905, "\u6307\u63ee": 86886, "\u30c7\u30a3\u30fc": 14329, "##\u30c8\u30ea": 24770, "##\u30d2": 52756, "##\u30c3\u30c4": 49598, "\u5c06\u8ecd": 55290, "\u62d2\u3093": 2737, "\u62b5\u6297": 27530, "\u9000\u5374": 5108, "##\u65ad": 8511, "\u540d\u8a89": 48726, "\u53f7": 386544, "\u8d08\u3089": 10554, "\u30b5\u30eb": 23814, "\u751f\u307f\u51fa\u3057": 7674, "\u30d7\u30eb": 15346, "##\u30fc\u30b9\u30c8": 2780, "\u8f29\u51fa": 8911, "\u524d\u885b": 4164, "\u30b1\u30eb": 9148, "##\u30e9\u30f3": 48504, "\u30d0\u30bf": 4811, "\u30df\u30b7\u30a7\u30eb": 4759, "\u30d5\u30fc": 18224, "##\u30b3\u30fc": 22024, "\u30b8\u30e5\u30ea\u30a2": 5014, "\u9023\u306d": 6484, "\u9686\u76db": 4754, "\u6975\u3081": 5511, "\u4e2d\u76e4": 8674, "\u30ea\u30e5\u30c3\u30af": 1674, "##\u30c0\u30fc\u30eb": 3341, "##\u30d5\u30a9\u30fc": 10107, "\u30cc\u30fc": 8339, "##\u30f4\u30a7\u30eb": 12217, "\u30f4\u30a1\u30fc": 14601, "\u53f0\u982d": 7995, "\u6226\u7dda": 21748, "\u5171\u7523": 41242, "\u515a": 232505, "##\u52e2": 23130, "1968": 35391, "\u304a\u3082\u306b": 3901, "\u30da\u30ea": 6139, "RE": 11751, "##R": 113483, "\u30e9\u30fb": 8463, "##\u30c7": 89427, "##\u30d5\u30a1\u30f3": 7816, "\u5730\u533a": 135363, "\u30aa\u30d5\u30a3\u30b9": 15013, "\u8c4a\u304b": 14230, "\u8ca7\u3057\u3044": 4891, "\u69cb\u56f3": 3153, "\u5931\u696d": 5716, "\u6cbb\u5b89": 10068, "\u66b4\u52d5": 6625, "\u540c\u770c": 4147, "48": 46755, "1964": 32741, "##\u6301\u3064": 3146, "\u4e0b\u4f4d": 17757, "\u9078\u6319": 151282, "1976": 36148, "##ron": 11429, "##iss": 5490, "##ement": 1619, "##\u56de\u308a": 13138, "\u6e26": 5670, "##\u5dfb": 16939, "\u756a\u53f7": 74378, "\u6050\u6016": 11266, "\u4fdd\u5b88": 23073, "\u904b\u55b6": 91717, "pr": 9913, "##\u00e9": 26217, "de": 41996, "##ine": 27930, "\u8b66\u5bdf": 85572, "\u8b66\u8996": 10241, "1884": 7866, "\u8b70\u54e1": 117475, "\u9078\u51fa": 68443, "\u6bce\u5e74": 45188, "\u8b70\u9577": 25207, "\u4e88\u7b97": 21466, "\u540c\u610f": 12955, "1975": 37703, "109": 8997, "\u8aee\u554f": 4096, "\u4efb\u547d": 38142, "\u884c\u4f7f": 9772, "\u30de\u30eb\u30bb\u30a4\u30e6": 3011, "1982": 39969, "1983": 40682, "163": 14170, "\u6a29\u9650": 15896, "\u5ec3\u3057": 2751, "81": 21094, "\u30c7": 107325, "##\u30af\u30ec": 11302, "\u624b\u7d9a": 7747, "\u6c7a\u7b97": 3692, "\u8cc7\u672c": 25479, "\u4fdd\u6709": 25455, "\u4f1a\u793e": 331119, "\u4ef2\u4ecb": 6503, "\u6df7\u5408": 13339, "SE": 16069, "##M": 98499, "\u00ab": 2272, "\u00bb": 1821, "\u4e0b\u6c34": 3822, "SI": 10437, "##AA": 5080, "Sy": 5497, "##ica": 10242, "int": 9803, "##er": 94633, "##art": 15756, "##al": 60995, "\u2019": 10561, "##ain": 12934, "##gg": 5370, "##lo": 26166, "##ari": 11893, "ST": 23250, "##F": 77536, "\u304a\u304a\u3088\u305d": 4201, "\u7ba1\u7406": 112955, "\u932f\u8aa4": 2647, "\u6d88\u3048": 11467, "\u9069\u5408": 6533, "\u5185\u5916": 5124, "\u9700\u8981": 18705, "\u7a0e\u5236": 2330, "\u67a0": 58156, "\u30d1\u30fc\u30bb\u30f3\u30c8": 10804, "\u8fb2\u6751": 9189, "\u5927\u304d": 26612, "\u305f\u308b": 20918, "\u73fe\u72b6": 11217, "\u6b74\u4ee3": 26197, "##\u30f4\u30a1\u30f3": 13463, "\u5728\u4efb": 10791, "Con": 12688, "##se": 60645, "##il": 28879, "##unic": 2339, "##ip": 15554, "\u52d9\u3081": 182942, "Pr": 3284, "\u517c\u306d": 13780, "##\u53ce": 10891, "85": 19332, "\u30e6\u30fc\u30ed": 17999, "69": 16249, "600": 23160, "\u6295\u8cc7": 27899, "\u5145\u3066": 5558, "\u50b5\u52d9": 9285, "\u6b8b": 18953, "\u53f8\u6cd5": 18941, "##\u5be9": 7848, "##\u30b9\u30c6\u30a3": 11659, "\u8a34\u8a1f": 20434, "\u5de8\u5927": 27932, "\u5be9": 10911, "\u5546\u4e8b": 5695, "\u6cb3\u5cb8": 3659, "\u8b66": 10107, "\u7f6a": 32821, "ru": 4222, "Ca": 10583, "##mb": 11177, "\u5be9\u5224": 12205, "Lou": 3063, "Bl": 8511, "##anc": 3582, "\u7ba1\u8f44": 31707, "\u63a7\u8a34": 6513, "##\u30bd\u30f3": 74883, "\u30c9\u30cb": 4937, "\u30f4\u30a1\u30eb": 13781, "\u30e8\u30f3": 5281, "\u533a\u57df": 32979, "\u66ae\u3089\u3057": 20353, "##\u770c": 10831, "\u30a6\u30fc": 12838, "\u30de\u30bf": 5716, "##\u30c8\u30a5": 18130, "\u30e0\u30e9": 6326, "\u30ab\u30ec": 6574, "\u30dd\u30ea": 27370, "##\u6bc0": 142, "##\u30bb\u30a4": 9659, "\u8a55\u8b70": 14646, "\u72af": 11089, "##\u7f6a": 8657, "\u5168\u571f": 6519, "\u738b\u51a0": 3081, "\u8a8d\u77e5": 14176, "\u4ef6": 36171, "\u72af\u7f6a": 29193, "\u7a83\u76d7": 2777, "118": 10423, "58": 30310, "\u5e73\u5747": 63536, "61": 27073, "03": 12074, "\u2030": 887, "\u6570\u5024": 13468, "\u30ea\u30fc\u30eb": 3664, "93": 15773, "\u30cb\u30fc": 20255, "119": 8231, "52": 30868, "120": 21703, "62": 28380, "\u88ab\u544a": 9502, "\u4e0b\u56de\u308b": 2674, "\u6210\u5e74": 5990, "\u30dd\u30a4\u30f3\u30c8": 46060, "\u6ede\u5728": 20961, "\u8a31\u53ef": 31279, "\u8a3c": 12321, "\u6240\u6301": 10221, "\u4f4f\u5c45": 18967, "73": 18428, "\u5f37\u59e6": 3363, "41": 38888, "##\u7387": 7515, "\u8eab\u4f53": 22796, "\u66b4\u884c": 5817, "\u8105\u8feb": 4299, "\u8ca1\u7523": 17555, "\u5668": 65460, "\u6c5a": 7536, "##\u640d": 6534, "\u30d6\u30fc": 16636, "\u30c7\u30e5": 17859, "\u4ef6\u6570": 2750, "##\u6a29": 21400, "\u72a0\u7272": 16209, "\u30b1\u30fc": 10423, "\u30df": 45771, "##\u30c3\u30b7": 12129, "##\u30a7\u30eb": 12590, "\u7206\u5f3e": 16823, "\u3068\u3063": 108321, "\u8db3\u308a": 8666, "##\u30d4\u30e9": 2350, "##\u30fc\u30c8": 34544, "Pl": 12054, "##an": 91461, "Vi": 16283, "##ira": 5214, "\u6226\u7565": 28722, "\u8981\u885d": 3279, "\u6b66\u88c5": 22857, "\u61b2\u5175": 3633, "\u5175\u58eb": 25620, "\u8b66\u5099": 21044, "##\u5211": 10868, "\u5211\u52d9": 11423, "\u30b0\u30e9\u30f3": 14211, "##\u30c8\u30ec": 11112, "##\u9928": 27179, "\u6295\u7344": 4382, "\u62d8\u7f6e": 2260, "##\u30b7\u30a7\u30eb": 3774, "\u30b7\u30f3\u30dc\u30eb": 10213, "\u30ea\u30fc": 48814, "\u30a2\u30f3\u30c8": 15502, "##\u30cd\u30c3\u30c8": 15259, "##\u30c1\u30f3": 25571, "1914": 15354, "\u69cb\u7bc9": 22700, "\u632f\u308b": 4295, "\u56fd\u4f1a": 25172, "##\u7981": 5648, "1830": 5051, "\u30ed\u30b1\u30c3\u30c8": 22588, "\u517c": 45747, "1867": 6080, "\u958b\u8a2d": 35513, "##ison": 1442, "d": 42086, "##\u00ea": 1357, "##\u30be\u30f3": 11635, "\u30ec\u30f3": 21282, "\u30d5\u30eb": 45765, "##\u30b7\u30fc": 61264, "\u53ce\u5bb9": 29567, "\u6696": 10818, "\u590f": 86763, "\u6c17\u6e29": 16735, "##\u6dbc": 4286, "\u4e7e\u71e5": 13439, "\u904e\u3054\u3057": 23923, "32": 59207, "\u9031\u9593": 47777, "\u7d9a\u304d": 23630, "\u6b7b\u8005": 12675, "\u5929\u5019": 7460, "\u5bd2": 25846, "\u540c\u5c45": 4601, "##\u51ac": 6609, "\u4e26\u307f": 3225, "\u663c\u9593": 6872, "\u66c7": 3089, "##\u7167": 6849, "\u964d": 15502, "##\u96ea": 18130, "\u7a4d\u96ea": 3050, "\u6c37": 21267, "##\u70b9": 29715, "\u53b3\u3057\u304f": 8891, "2009": 151541, "##\u6c17": 37431, "\u964d\u6c34": 6723, "65": 27143, "\u00b0": 25801, "28": 141775, "\u2212": 8175, "1879": 6925, "##\u5e30\u308a": 2925, "\u5f80\u5fa9": 16986, "\u4e0b\u6d41": 12266, "\u9591": 4077, "##\u9759": 6534, "\u9ad8\u7d1a": 16293, "\u6240\u5f97": 9952, "\u5730\u4fa1": 5811, "\u62b1\u3048": 14488, "\u96fb\u8eca": 57720, "\u6574\u3048": 6828, "##\u30c0\u30eb": 14923, "\u9ad8\u5c64": 8080, "\u30d3\u30eb": 70661, "\u62b1\u3048\u308b": 5259, "\u516c\u5712": 91428, "\u5ead\u5712": 13293, "\u30d1\u30eb": 19654, "##\u30c0\u30f3": 15216, "##ard": 12668, "##in": 48408, "\u61a9": 1392, "\u5893\u5730": 13263, "\u5357\u5317": 29319, "\u7720\u3063": 3041, "\u30c7\u30ab": 4954, "##\u30eb\u30c8": 18411, "\u5049": 5332, "\u57cb\u846c": 15143, "\u524d\u9762": 11746, "##\u5ba2": 11966, "\u88c5\u7f6e": 65862, "\u5efa\u9020": 38588, "\u6570\u3005": 14688, "\u907a\u7523": 27286, "\u53ce\u3081": 40605, "\u9298\u67c4": 3662, "\u5468\u5e74": 36933, "\u5148\u7aef": 18932, "##\u5229": 22729, "\u8cfc\u8cb7": 2478, "\u7d1a": 173376, "\u53ce\u8535": 5529, "\u4e26\u3076": 12161, "\u540d\u6240": 8354, "\u7570\u540d": 5315, "\u6f14\u5287": 23650, "\u30d5\u30a1\u30c3\u30b7\u30e7\u30f3": 20142, "\u99b3": 3987, "##\u3063\u304f\u308a": 8642, "##\u632f": 7162, "\u30e2\u30ca": 2996, "##\u30b6": 61431, "##\u30e2\u30c8": 2670, "##\u30b1": 68442, "\u30f4\u30a3\u30fc": 10994, "\u540d\u4f5c": 3335, "\u30a8\u30b8\u30d7\u30c8": 26277, "\u9060\u5f81": 22227, "\u8003\u53e4": 11475, "\u5e38\u8a2d": 5168, "\u5c55\u793a": 41286, "\u6240\u8535": 11408, "\u304b\u304b\u308a": 10694, "\u5165\u5834": 11935, "\u7d75\u753b": 20565, "\u30a2\u30fc\u30eb": 8193, "##\u30dc\u30fc": 13208, "\u30df\u30e5": 6611, "##\u30bc": 60940, "\u30b3\u30ec\u30af\u30b7\u30e7\u30f3": 17422, "\u8a87\u308b": 8475, "\u7121\u6599": 26327, "\u30c0\u30a6\u30f3\u30ed\u30fc\u30c9": 12263, "\u91ce\u5916": 6158, "\u5f6b\u523b": 14207, "##\u30d3\u30ea": 9754, "\u30b6\u30fc\u30eb": 2958, "\u4f1a\u5834": 30868, "168": 16483, "\u30b3\u30e1\u30c7\u30a3": 15196, "\u540c\u540d": 14691, "\u821e\u53f0": 80472, "\u738b\u7acb": 11340, "\u821e\u8e0f": 3307, "\u30a2\u30ab\u30c7\u30df\u30fc": 32420, "\u30aa\u30da\u30e9": 23464, "\u30ac\u30eb": 13920, "##\u30cb\u30a8": 10281, "\u805e\u304b": 9698, "\u30e9\u30a4\u30d6": 73769, "\u30cf\u30a6\u30b9": 32602, "\u7ba1\u5f26": 12727, "\u697d\u56e3": 22628, "\u30b3\u30f3\u30b5\u30fc\u30c8": 30719, "##\u81f3": 3851, "mus": 1641, "##ique": 2662, "\u796d": 74580, "\u30b8\u30e3\u30f3\u30eb": 19879, "\u30b8\u30e3\u30ba": 20063, "\u30d6\u30eb\u30fc\u30b9": 12042, "\u6f14\u594f": 75568, "##ser": 5899, "##va": 20415, "##to": 28186, "##ire": 7839, "\u821e\u8e0a": 6201, "\u624d\u80fd": 13259, "\u5b66\u3073": 24128, "\u30ac\u30b9": 48613, "##\u30ce\u30df": 6351, "##\u306a\u3057": 6617, "\u30ec\u30b9\u30c8\u30e9\u30f3": 23081, "##\u30fb\u30df": 9104, "\u661f": 89102, "\u4f8b\u5e74": 4410, "\u30b7\u30a7\u30d5": 4793, "\u582a\u80fd": 2022, "\u5375": 26567, "\u4fee\u884c": 11608, "\u52b1": 8784, "\u7af6\u6280": 83872, "\u958b\u50ac": 203038, "\u795e\u8056": 9398, "\u7687\u5e1d": 42117, "\u751f\u6daf": 54256, "\u5bbf": 38296, "##\u6575": 13399, "\u611b\u3057": 10017, "##\u8208": 15823, "\u30d5\u30ea\u30fc\u30c9\u30ea\u30d2": 13895, "\u62db\u304d": 7807, "##\u5e1d": 17910, "\u30a8\u30ab": 3431, "##\u30c1\u30a7": 27878, "##\u30ea\u30fc\u30ca": 7783, "##\u5bc4\u305b": 7595, "2014": 142426, "79": 15221, "\u30c9\u30eb": 82503, "\u30ed\u30b5\u30f3\u30bc\u30eb\u30b9": 24465, "\u30bd\u30a6\u30eb": 20017, "\u56fd\u7c4d": 12944, "\u30af\u30e9\u30b9": 67549, "BN": 2377, "##\u30bf\u30eb": 22505, "\u30a2\u30af": 15608, "\u6709\u6570": 7049, "\u5de5\u82b8": 8561, "\u8d05": 2311, "\u670d": 30527, "\u96c6\u7a4d": 7400, "##\u30b7\u30e3\u30f3": 8128, "\u30ec\u30b8": 9780, "##\u30fc\u30e0": 17421, "\u305f\u3063": 6396, "\u7740\u624b": 12071, "\u82e6\u52b4": 6705, "\u898b\u3064\u3051": 22349, "\u88c1": 13606, "\u8077\u4eba": 9718, "\u7e2b": 5621, "\u8ed2": 19863, "##\u305a\u308a": 786, "\u304a\u307e\u3051": 2523, "\u8a2a\u306d": 8872, "\u60f3\u50cf": 9896, "\u307e\u308b\u3067": 7486, "\u5009\u5eab": 9060, "##\u3055\u307e": 2384, "\u4fa1\u683c": 34666, "##\u5024": 6282, "\u5439\u3063": 569, "\u652f\u6255\u3044": 10596, "\u639b\u3051": 19533, "##\u58f2\u308a": 3351, "\u7686": 51275, "\u3046\u3093": 7733, "\u7d4c\u55b6": 89339, "\u5c0e\u5165": 88875, "\u5c0f\u58f2": 7627, "\u696d\u8005": 5511, "\u30e2\u30fc\u30c9": 32331, "\u6ce8\u6587": 9446, "\u63e1\u3063": 5460, "\u738b\u5983": 7926, "\u7740\u308b": 3080, "\u5ba3\u4f1d": 17111, "\u717d": 3413, "##\u5132": 741, "\u30aa\u30fc\u30c0\u30fc": 4849, "\u30e1\u30a4\u30c9": 4986, "\u30b7\u30e7\u30fc": 39135, "\u5bcc\u88d5": 3718, "\u30d6\u30eb": 34657, "##\u30b8\u30e7": 19238, "##\u30b8\u30fc": 33633, "\u6b32\u671b": 2584, "\u63bb": 1808, "##\u305f\u3066": 2417, "\u30dd\u30eb": 7665, "\u83ef": 28931, "##\u3084\u304b": 16579, "\u60d1": 966, "\u30a6\u30a3\u30fc\u30af": 7131, "\u671f\u9593": 91485, "\u30c7\u30b6\u30a4\u30ca\u30fc": 14671, "##\u5fb9": 2522, "\u3057\u305f": 2063, "##\u305f\u304b": 4178, "\u30c4\u30fc\u30eb": 13932, "\u6d41\u3055": 6675, "##\u50cf": 19231, "\u672c\u5f53": 52631, "\u50cf": 34297, "\u4fe1\u3058": 21910, "##\u3053\u3046": 20224, "##\u30ef\u30d5": 5168, "\u6c17\u3065\u304b": 2757, "\u9b31": 3323, "\u8cac\u3081": 2806, "\u82e6\u3057\u3093": 3904, "\u5e30\u56fd": 41004, "\u76ee\u7acb\u3063": 5792, "##\u5916": 34536, "\u56f2\u307e": 13058, "198": 1660, "\u696d\u52d9": 52253, "\u5a01": 10834, "\u8352\u5ec3": 5348, "\u6d41\u51fa": 9120, "\u30b7\u30c6\u30a3": 40530, "\u4e16\u5e2f": 35939, "\u30ab\u30c3\u30d7\u30eb": 4761, "\u5358\u8eab": 3516, "47": 34727, "\u72ec\u8eab": 3991, "\u7d50\u5a5a": 99039, "##\u89aa": 13436, "\u96e2\u5a5a": 16627, "\u5a5a\u59fb": 6466, "100": 130943, "\u51fa\u751f": 11291, "\u5b50\u3069\u3082": 20638, "\u9ad8\u984d": 6083, "##\u56e0": 8517, "\u683c\u5dee": 4683, "\u30a4\u30f4": 6768, "\u9023\u306a\u308b": 3099, "\u8ca7\u56f0": 9078, "\u4e2d\u9000": 10289, "\u5065\u5eb7": 34400, "\u30de\u30b0": 12549, "##\u30ea\u30d6": 3509, "\u30b5\u30cf\u30e9": 2582, "\u56fd\u52e2": 27618, "\u554f\u3046": 4800, "\u672c\u56fd": 9457, "1820": 3569, "\u8fb2\u6c11": 14486, "\u30dc\u30ca": 3877, "##\u30d1\u30eb\u30c8": 3934, "1917": 15259, "\u30dd\u30fc\u30e9\u30f3\u30c9": 39143, "70": 46743, "\u4e2d\u7b49": 8659, "\u516c\u7acb": 31804, "\u5150\u7ae5": 32678, "57": 27568, "\u79c1\u7acb": 16158, "\u5951\u7d04": 130742, "\u512a\u5148": 18799, "##EP": 5093, "214": 2464, "\u6821": 65391, "\u5e7c\u7a1a": 12479, "\u5712": 70574, "110": 16025, "\u4e2d\u5b66": 37336, "72": 21149, "##\u30bb": 62224, "34": 44266, "\u5b9f\u9a13": 49495, "\u57fa\u3065\u304d": 17958, "\u5165\u5b66": 48487, "256": 3034, "67": 17869, "\u30ad\u30e3": 23420, "\u3042\u305f\u308b": 53787, "\u5b66\u9662": 36212, "EN": 7402, "\u79fb\u8ee2": 44059, "\u5e2b\u7bc4": 12533, "\u8131": 28098, "\u540d\u9ad8\u3044": 2772, "\u79c0": 40272, "\u7279\u6a29": 6307, "\u897f\u66a6": 7696, "\u5bc4\u5bbf": 2637, "\u820e": 14598, "125": 13381, "##\u30bf\u30f3": 39378, "\u8077": 51796, "##\u30b3\u30fc\u30eb": 3873, "##\u30c6\u30af": 7089, "\u533b": 25885, "\u85ac": 49563, "\u9707\u6e90": 2926, "\u4fdd\u3061": 3256, "\u30b7\u30e5\u30fc": 12714, "\u30ad\u30e3\u30f3\u30d1\u30b9": 17739, "Camp": 2130, "Ju": 7727, "\u5316\u5b66": 50202, "EP": 9402, "LI": 8291, "\u9271\u696d": 5107, "Ch": 30545, "##im": 18888, "##T": 119053, "##ec": 9872, "##h": 74030, "Ag": 6638, "##ro": 36806, "##Pa": 5004, "\u96fb\u5b50": 52690, "\u5de5\u5b66": 38170, "IS": 11768, "\u5546\u79d1": 2591, "\u516c\u958b": 125289, "##\u5165\u308c": 22188, "##\u97ad": 583, "\u30ca\u30f3": 14847, "\u53bb\u3063": 10301, "\u53f0\u5730": 7327, "\u5927\u5730": 6443, "HE": 8438, "\u30b5\u30af": 7253, "\u30d6\u30fc\u30eb": 3686, "\u5bb6\u5177": 5767, "\u4fee\u7406": 17940, "\u30b0\u30e9\u30d5\u30a3\u30c3\u30af": 9784, "\u30a2\u30fc\u30c8": 21331, "##\u4e01": 5073, "\u30d6\u30eb\u30fc": 39646, "\u30e6": 30763, "\u5712\u82b8": 5366, "\u533b\u7642": 48792, "\u885b\u751f": 14221, "\u8056": 69497, "\u30e9\u30f3\u30c9": 39286, "\u30c7\u30e5\u30fc": 5166, "\u6148": 8135, "##\u611b": 13506, "AP": 10066, "HP": 7960, "Ass": 2249, "##ista": 1897, "##ubl": 2258, "##\u00f4": 1282, "##ita": 12647, "##ux": 2958, "\u652f\u63f4": 83725, "\u5f8c\u65b9": 18061, "\u533b\u5e2b": 29070, "\u516c\u52d9": 11118, "\u5f93\u4e8b": 26373, "\u30df\u30e9": 4204, "##\u30df\u30aa": 3651, "##\u30c3\u30b1\u30eb": 1868, "\u5c0f\u5150": 5754, "\u30b3\u30b7": 3463, "##\u30e3\u30f3": 5497, "##\u30b7\u30e3": 23730, "\u30af\u30ed\u30fc\u30c9": 3590, "\u30d9\u30eb\u30ca\u30fc\u30eb": 1811, "##\u30ea\u30c3\u30c9": 5258, "\u4fdd\u5065": 12255, "\u5927\u81e3": 66945, "\u76e3\u7763": 188630, "\u56fd\u9632": 18026, "\u59d4\u4efb": 4110, "\u9000\u5f79": 10368, "\u8ecd\u4eba": 26093, "\u6cbb\u7642": 40602, "\u73fe\u5f79": 44108, "\u5bb6\u65cf": 78953, "\u4fdd\u967a": 33024, "\u770b\u8b77": 13628, "\u5916\u79d1": 8565, "\u30c6\u30a4": 9683, "\u9644\u5c5e": 17595, "##\u30fb\u30e2": 9106, "##\u30f3\u30c9\u30fc": 576, "##\u30fb\u30d3": 6486, "##\u30ec\u30e0": 4827, "##\u30fb\u30e9": 14965, "##\u30f3\u30b7\u30fc": 1133, "##\u30e1\u30a4": 7957, "##\u30fb\u30b3": 13736, "##\u30df\u30e5\u30fc": 4160, "\u30dc": 42529, "##\u30b8\u30e7\u30f3": 11306, "\u30af\u30ea": 23168, "##\u30d7": 102604, "126": 7300, "\u6551\u6e08": 8072, "##\u30fb\u30f4\u30a1": 4055, "\u30b0\u30e9\u30fc": 3698, "\u30da\u30eb": 11873, "\u30b7\u30fc": 52415, "\u30cc": 19583, "\u30b7\u30e5\u30eb": 6833, "1906": 11622, "##\u76ca": 10890, "\u55b6\u5229": 6819, "\u8a8d\u53ef": 12646, "\u30a2\u30e1\u30ea\u30ab\u30f3": 24426, "\u30db\u30b9": 7023, "\u7279\u7b46": 6289, "\u5bc6\u5ea6": 16041, "84": 16659, "\u4fdd\u8a3c": 12386, "\u4fdd\u6301": 21776, "\u5165\u6d74": 3316, "\u5206\u6563": 11070, "\u500b\u5ba4": 2018, "\u6d17": 9664, "##\u9762": 41045, "\u5177": 16745, "\u30bf\u30fc\u30df\u30ca\u30eb": 21025, "\u5730\u4e0b": 66827, "\u304f\u307e": 5464, "RA": 11286, "##TP": 3489, "\u5e02\u55b6": 10097, "\u5357\u7aef": 7598, "\u30c8\u30e9\u30e0": 2445, "\u8def\u9762": 11124, "\u958b\u901a": 28396, "\u6df7\u96d1": 5973, "\u81ea\u52d5": 141133, "\u6291\u5236": 12467, "\u76ee\u6307": 1297, "\u81ea\u8ee2": 30426, "\u5c02\u7528": 52311, "\u30ec\u30fc\u30f3": 6193, "\u901a\u884c": 18285, "\u30eb\u30fc\u30c8": 31377, "##\u6163": 1264, "\u904b\u8ee2": 91831, "\u4ea4\u5dee": 34916, "\u30e9\u30a6\u30f3\u30c9": 16122, "\u30a2\u30d0": 8328, "##\u30a6\u30c8": 5957, "\u30ed\u30fc\u30bf\u30ea\u30fc": 4545, "\u5730\u5143": 59269, "\u99d0\u8eca": 16198, "\u9593\u9694": 11870, "\u5bc6\u7740": 4650, "\u8107": 12079, "##\u5217": 12423, "\u8def\u4e0a": 4603, "\u53d6\u308a\u5dfb": 949, "\u7acb\u4f53": 10020, "\u63d0\u643a": 20288, "\u3075\u3055": 3464, "##\u308f\u3057": 9263, "##\u4e26\u307f": 5899, "\u30ea\u30f3\u30af": 35692, "\u30b9\u30dd\u30fc\u30c4": 86796, "\u50ac": 4431, "##\u4e8b": 35756, "\u3057\u3085\u3046": 13228, "\u7f85": 12273, "\u30e6\u30fc\u30e9\u30b7\u30a2": 3289, "\u5317\u897f": 27723, "\u5305\u62ec": 5897, "\u5c71\u8108": 20679, "##\u30b5\u30b9": 9272, "\u5206\u6c34": 2789, "\u5dba": 5725, "\u30ab\u30b9": 12385, "\u9ed2\u6d77": 3457, "##\u30b2": 52202, "\u7e4b\u3050": 2907, "\u30dc\u30b9": 15723, "##\u30e9\u30b9": 22840, "\u6d77\u5ce1": 15332, "##\u30de\u30e9": 5908, "\u30c0\u30fc": 15589, "##\u30cd\u30eb": 17299, "\u9678\u5730": 7841, "\u8de8": 4939, "\u9818\u571f": 18947, "\u30d0\u30c1": 4954, "##\u30ab\u30f3": 21803, "330": 5400, "\u6587\u660e": 15935, "\u62e1\u6563": 6063, "\u30aa\u30bb\u30a2\u30cb\u30a2": 2647, "##\u706b": 25857, "\u8986\u3044": 2998, "\u7d50\u3073\u3064\u304d": 3272, "\u30bd\u30d3\u30a8\u30c8": 27043, "\u596a\u308f": 12712, "\u5c55\u958b": 83496, "\u6d77\u5cb8": 37475, "##\u30ed\u30b9": 19659, "\u30a2\u30dd": 5862, "\u30ed\u30fc\u30f3": 10283, "\u6367\u3052": 6118, "\u30db": 54368, "##\u30e1\u30fc": 7091, "\u8b83": 6457, "\u30df\u30ec": 4394, "##\u30c8\u30b9": 12758, "##\u30bf\u30a4": 13340, "##\u30aa\u30b9": 10128, "##\u30ed\u30c9": 3327, "\u30ea\u30d3\u30a2": 4186, "\u30ca\u30a4\u30eb": 3342, "\u30ea\u30aa": 10046, "\u6771\u5074": 20640, "\u5883": 23207, "\u8457\u8ff0": 3632, "\u30e8": 22209, "##\u30d9\u30eb": 30624, "\u30ce\u30a2": 4751, "\u606f\u5b50": 65199, "\u30b8\u30d6\u30e9\u30eb": 2736, "\u30d8\u30e9\u30af": 2157, "##\u30ec\u30b9": 49265, "\u67f1": 21247, "\u5e83\u304c\u308b": 11546, "\u8a00\u53ca": 20275, "\u30b2\u30eb\u30de\u30f3": 4423, "\u5408\u6d41": 29984, "\u30d3\u30b6\u30f3": 4229, "##\u30c6\u30a3\u30f3": 11105, "\u5bfe\u6bd4": 4321, "\u30a4\u30d9\u30ea\u30a2": 3242, "\u30d6\u30ea\u30c6\u30f3": 5813, "\u53d7\u3051\u7d99\u3044": 4916, "\u624b\u7d19": 24660, "Euro": 1130, "\u822a\u6d77": 14912, "\u30b9\u30a6\u30a7\u30fc\u30c7\u30f3": 31694, "\u88fd\u4f5c": 106169, "\u6c34\u57df": 11131, "173": 14966, "##\u30fc\u30ea": 13099, "\u76ae\u5207\u308a": 7414, "\u652f\u6301": 64187, "\u7d4c\u7531": 38840, "\u5357\u6771": 23609, "\u901a\u3063": 27565, "\u5730\u4e2d": 13837, "\u7e4b\u304c\u308b": 5403, "\u8003\u616e": 20867, "\u30ad\u30d7\u30ed\u30b9": 3793, "\u30a2\u30ca": 30696, "##\u30c8\u30ea\u30a2": 10244, "\u4e00\u54e1": 15528, "\u30de\u30eb\u30bf": 5718, "\u53d7\u3051\u6b62\u3081": 3267, "\u5916\u52d9": 15853, "\u30b5\u30a4\u30c8": 68448, "\u30ab\u30b6\u30d5\u30b9\u30bf\u30f3": 4118, "##\u4ed6": 3743, "\u795e\u8a71": 21596, "\u30bc\u30a6\u30b9": 2718, "##\u725b": 8030, "\u652b": 413, "##\u30ad\u30a2": 11540, "\u738b\u5973": 6272, "\u30a8\u30a6": 7773, "##\u30ed\u30fc": 35064, "##\u51fa\u3057": 39131, "\u5e45\u5e83\u3044": 11277, "\u773c": 20838, "\u4ed8\u52a0": 9120, "##\u8996": 17357, "\u4fe1\u4ef0": 26384, "\u30a2\u30c3": 22271, "\u5915\u65b9": 11726, "\u5408\u81f4": 3069, "\u672b\u5c3e": 3094, "\u30aa\u30af": 9846, "##\u30d5\u30a9\u30fc\u30c9": 15193, "\u30aa\u30f3": 48234, "##\u5199": 12087, "##\u30c3\u30d1": 10179, "\u633f\u5165": 13092, "\u9077\u79fb": 3718, "\u30ab\u30bf\u30ab\u30ca": 4526, "\u66f2\u3052": 2779, "\u5410\u304f": 1142, "\u6bb4": 3234, "\u3046\u305f": 13578, "\u30c8\u30eb\u30b3": 23779, "\u30da\u30eb\u30b7\u30e3": 3278, "\u6b63\u5f0f": 60794, "\u89b3\u5ff5": 5075, "5000": 17161, "##\u30ce\u30b9": 13082, "##\u30c7\u30a3\u30a2": 11637, "##\u30ea\u30a2": 49523, "\u76fe": 5959, "##\u30c8\u30f3": 65553, "##\u30c6\u30a3\u30ab": 5559, "\u30b3\u30ed\u30f3\u30d3\u30a2": 14839, "##\u30ec\u30f3": 46796, "\u30b7\u30a2": 8605, "##\u30cb\u30a2": 40341, "\u3075\u305f\u305f\u3073": 2777, "4000": 7553, "\u885d\u7a81": 24497, "##\u30e1\u30ea\u30ab": 1103, "\u30b4\u30f3": 10744, "##\u30ef\u30ca": 2713, "##\u30a2": 187239, "9000": 3566, "\u5206\u65ad": 5285, "\u30ed\u30fc\u30e9": 4394, "\u5225\u308c": 14079, "##\u30e9\u30f3\u30c9": 26807, "\u884c\u304d\u6765": 4090, "\u6d77\u9762": 4286, "\u4f4e\u4e0b": 28748, "\u901a\u3058\u308b": 5977, "##\u53f2": 28754, "\u5b9a\u4f4f": 7501, "180": 21291, "\u30b8\u30e7\u30fc\u30b8\u30a2": 12159, "\u30db\u30e2": 5614, "\u30b2\u30aa\u30eb": 3289, "##\u30af\u30b9": 37353, "\u30a2\u30bf": 7351, "##\u30a8\u30eb": 31867, "##[": 74020, "##]": 65534, "\u8c37": 43206, "\u5909\u52d5": 13227, "\u8db3\u8de1": 2676, "\u7d76\u6ec5": 11365, "##\u30de\u30cb": 5637, "##\u30e7\u30f3": 9926, "\u77f3\u5668": 6556, "|": 331901, "\u4f5c\u7269": 4861, "\u683d\u57f9": 24934, "\u5bb6\u755c": 6446, "\u98fc\u80b2": 14257, "\u8457\u3057\u304f": 8075, "\u571f\u5668": 7993, "7000": 6487, "\u30d0\u30eb\u30ab\u30f3": 4994, "\u30c9\u30ca\u30a6": 3400, "450": 7145, "3000": 16710, "\u4f1d\u64ad": 3885, "\u5317\u7aef": 5975, "\u9285": 27591, "##\u5668": 17350, "\u88fd\u6cd5": 4425, "\u4f1d\u308f\u3063": 7645, "\u30ac\u30f3": 41230, "##\u65a7": 895, "\u8ee2\u63db": 22734, "\u5de8": 14547, "\u795e\u6bbf": 8930, "\u30b9\u30c8\u30fc\u30f3": 13172, "\u30cf\u30eb": 22554, "\u30b7\u30e5\u30bf\u30c3\u30c8": 3831, "\u62c5\u3044": 4348, "\u5686": 1520, "##\u77e2": 11778, "\u30da\u30eb\u30b7\u30a2": 8948, "##\u30bb\u30b9": 7074, "\u4ea1\u547d": 14773, "\u30b9\u30d1\u30eb\u30bf": 5234, "\u30de\u30e9": 18712, "\u30c8\u30b9": 6716, "\u7d71\u7387": 2371, "\u4e0d\u5728": 7217, "\u653e": 10894, "##\u4efb": 20137, "\u5927\u8ecd": 3059, "\u53cd\u6297": 4035, "\u601d\u3048": 6951, "\u8a9e\u308b": 10847, "\u53d7\u8afe": 2769, "\u541b\u4e3b": 15475, "\u96b7": 1584, "##\u5c5e": 9580, "\u898f\u5f8b": 3027, "\u30a2\u30ea\u30b9\u30c8": 3673, "##\u30c6\u30ec\u30b9": 2993, "##\u30ad\u30e5": 4861, "##\u300f": 24775, "\u5408\u5531": 14868, "\u968a": 169745, "\u30a2\u30c8": 7597, "##\u30c3\u30b5": 17879, "\u5983": 10347, "\u6c7a\u6226": 8060, "\u7956\u56fd": 4726, "\u53eb\u3076": 1797, "\u63cf\u5199": 21011, "Fil": 4273, "Europe": 1894, "##ograp": 1605, "##hy": 6503, "##ap": 15230, "en": 16001, "##ight": 16234, "Ta": 21428, "##ko": 9700, "##sk": 8182, "from": 7227, "##ir": 20128, "jp": 5090, "\u30d5\u30a3\u30f3": 12574, "W": 86693, "##\u0142": 1166, "##br": 7451, "##go": 25144, "JP": 4916, "##G": 84985, "\u660e\u77ad": 4631, "\u4e3b\u8ef8": 3606, "\u30d4\u30ec": 3319, "##\u30cd\u30fc": 19251, "##\u5cfb": 1551, "\u9ad8\u5730": 6956, "\u3064\u304f\u3089": 4506, "\u30d2\u30de\u30e9": 2137, "##\u8de1": 16260, "##\u8e0f": 1656, "\u4e21\u5074": 7145, "\u65bd\u3057": 9279, "\u6cb3\u5ddd": 26862, "\u5c0f\u3055\u3044": 27572, "\u5927\u6cb3": 6895, "\u5317\u5074": 20971, "\u5e73\u91ce": 16376, "\u3086\u308b": 4793, "\u6c34\u91cf": 2466, "\u30c8\u30f3": 42329, "\u66f3": 7277, "##\u822a": 10013, "\u6ce8\u3050": 4722, "\u30dd\u30fc": 21950, "\u304a\u3057": 5012, "##\u306a\u3079": 616, "\u65bd\u3059": 2610, "\u5185\u9678": 9233, "\u6f15": 2505, "\u5fd7\u5411": 6072, "\u6e2f\u6e7e": 10748, "\u30b1\u30eb\u30f3": 5633, "\u30d6\u30ec\u30fc\u30e1\u30f3": 2932, "\u30cf\u30f3\u30d6\u30eb\u30af": 5264, "\u958b\u58be": 2762, "\u6cbc": 12144, "\u958b\u62d3": 16454, "\u5e73\u539f": 5727, "\u8349\u539f": 4083, "\u6771\u65b9": 13598, "\u4fb5\u5165": 16595, "\u5360\u62e0": 5797, "\u8a31\u3057": 8374, "\u9632\u885b": 50185, "\u6771\u7aef": 4807, "##ge": 25956, "##ta": 44810, "fr": 8701, "##ame": 13883, "##:": 5407, "##\u3057\u3066": 4271, "\u5439\u304d": 10371, "##\u5e2f": 18267, "\u6e7e": 50298, "\u30ca\u30dd\u30ea": 6618, "60": 68346, "\u30e8\u30fc\u30af": 9085, "53": 30392, "\u30d9\u30eb\u30ea\u30f3": 27536, "##\u30fc\u30c4\u30af": 1035, "\u3061\u304b": 4623, "\u7d30\u304b": 2242, "\u4e9c": 22928, "\u71b1\u5e2f": 13388, "\u73fe\u3057": 4524, "\u6dbc": 9774, "\u5b63\u7bc0": 12976, "\u6e56\u6cbc": 2246, "\u51cd\u7d50": 5631, "\u690d": 12158, "##io": 21215, "##unt": 7849, "##ri": 43957, "##v": 52011, "300": 42742, "##ori": 14664, "##ic": 43684, "##ions": 3684, "##li": 36018, "##olf": 2213, "##gan": 4777, "Fre": 4425, "Rain": 1780, "##\u00f6": 5825, "##sch": 7665, "\u304a\u305d\u3089\u304f": 15525, "\u68ee\u6797": 16353, "\u8986\u308f": 10030, "##\u7c89": 9367, "##\u53e4": 13814, "\u30b7\u30ca": 11889, "##\u30ce\u30ad": 5653, "\u7e41": 11457, "\u30d6\u30ca": 2459, "\u30cf\u30ea": 9369, "##\u30e2": 81058, "\u30b7\u30e9": 7600, "\u6a39": 27195, "\u6210\u3057": 3550, "\u5c71\u5cb3": 12155, "\u5317\u6b27": 4884, "\u30de\u30c4": 6012, "\u30b9\u30c6\u30c3\u30d7": 12919, "##\u8fbc\u3081": 4559, "##\u6c83": 2118, "##\u571f": 15866, "\u7a40\u7269": 5763, "\u53ce\u7a6b": 6897, "\u7f8a": 10804, "\u653e\u7267": 2315, "\u4f10\u63a1": 3632, "##\u755c": 2944, "\u6a39\u6728": 6206, "\u9078": 36961, "\u30b0\u30ea": 22037, "\u98fc\u6599": 2725, "\u4f7f\u3048\u308b": 9350, "\u3082\u305f\u3089\u3059": 10105, "\u6728\u6750": 8392, "\u73cd": 8809, "\u4fc3\u9032": 17537, "\u30d7\u30e9": 24786, "##\u30bf\u30ca": 6485, "##\u30d7\u30e9": 14286, "##\u683d": 2541, "##ft": 8229, "\u4e00\u4eba": 86279, "\u540d\u76ee": 7595, "GDP": 3507, "no": 32303, "##inal": 4207, "\u8cc7\u7523": 17966, "\u5146": 11885, "\u7dcf\u984d": 8359, "\u901a\u8ca8": 13276, "PP": 5844, "\u30b6": 93880, "\u30ef\u30fc\u30eb\u30c9": 70548, "##\u30af\u30c8": 20989, "\u30d6\u30c3\u30af": 12311, "\u30e9\u30f3\u30af": 17976, "\u30e2\u30ca\u30b3": 3953, "US": 12689, "\u30e2\u30eb": 19762, "\u30d5\u30a1\u30a4\u30eb": 25235, "Rec": 3933, "##ied": 2913, "La": 40816, "##age": 17809, "of": 88493, "\u5c5e\u3059": 5195, "\u30ab\u30d5": 4506, "##\u30ab\u30b9": 11627, "##\u30a4\u30c9": 13128, "\u67d3\u8272": 8626, "\u30cf\u30d7": 2963, "##\u30eb\u30fc": 24550, "R": 126831, "\u983b\u5ea6": 7971, "N": 81058, "##am": 25967, "\u30bb\u30d0\u30b9\u30c1\u30e3\u30f3": 1972, "\u53ca\u307c\u3057": 4976, "\u6b63\u6559": 11712, "\u30b3\u30bd\u30dc": 3784, "\u30a2\u30bc\u30eb\u30d0\u30a4\u30b8\u30e3\u30f3": 4789, "\u30d2\u30f3\u30c9\u30a5\u30fc": 4613, "##\u30a4\u30af": 6363, "\u4e16\u4fd7": 4127, "\u4e0d\u53ef": 10320, "\u77e5": 27602, "\u6a19\u699c": 2684, "\u30a8\u30b9\u30c8\u30cb\u30a2": 5401, "\u6771\u30c9\u30a4\u30c4": 5420, "\u8868\u660e": 30204, "OS": 18014, "##CE": 8970, "##co": 33365, "##N": 128645, "##\u9700": 1978, "\u4ee5\u3063": 4414, "\u5185\u653f": 3015, "\u4e89\u3044": 23594, "\u9665": 3523, "\u76ee\u6307\u3059": 21249, "\u6a39\u7acb": 10480, "\u305b\u3088\u3046": 9315, "\u7de9\u3084\u304b": 4391, "##\u80a9": 3509, "##\u5374": 5334, "##\u811a": 12979, "\u8feb\u308b": 5350, "\u610f\u7fa9": 8152, "\u30ab\u30c6\u30b4\u30ea": 4295, "##*": 3689, "\u305b\u3044": 46587, "\u3076\u3064": 5979, "\u751f\u304d\u7269": 2485, "##\u3082\u306e": 9401, "\u83cc": 21076, "\u85fb": 5017, "\u7d30\u83cc": 11053, "\u30a6\u30a4\u30eb\u30b9": 27496, "\u7956\u5148": 7321, "\u751f\u547d": 25099, "\u5b50\u5b6b": 20685, "\u5897\u6b96": 5717, "\u8907\u88fd": 6074, "\u30d0\u30af": 9032, "##\u30c6\u30ea\u30a2": 4874, "\u3044\u305f\u308b": 3977, "\u30ac\u30a4\u30a2": 3223, "\u6570\u5341": 11321, "\u4e0a\u308b": 4035, "\u30a8\u30cd\u30eb\u30ae\u30fc": 43439, "\u5909\u63db": 22425, "##\u754c": 21406, "\u9694\u96e2": 3891, "\u3084\u308a\u3068\u308a": 2689, "##\u3084\u3059": 4528, "\u958b\u653e": 12484, "\u6052": 11653, "##\u5e38": 10080, "\u7d30\u80de": 59603, "\u5bc4\u751f": 6555, "\u4ee3\u8b1d": 7001, "\u5bbf\u4e3b": 4353, "\u5927\u6c17": 14100, "\u7d44\u6210": 6058, "\u7a92\u7d20": 6521, "78": 19942, "\u9178\u7d20": 13060, "\u9178\u5316": 26414, "\u70ad\u7d20": 15322, "\u6e29\u5ba4": 2604, "\u5730\u8868": 5174, "\u6e29\u5ea6": 21238, "\u9ad8\u304b\u3063": 7195, "\u5408\u6210": 30602, "\u6709\u6a5f": 13046, "\u77f3\u7070": 5941, "\u6709\u5bb3": 4801, "\u5b87\u5b99": 78951, "\u7d2b\u5916": 3333, "\u906e\u65ad": 5371, "\u9678\u4e0a": 37086, "\u6d77\u6c34": 10012, "\u6eb6\u3051": 5094, "##\u8fbc\u3093": 40054, "##\u964d": 4142, "\u9244\u92fc": 3504, "\u5e8a": 19982, "\u5806\u7a4d": 7539, "##\u3089\u305b": 4165, "\u5b66\u540d": 12739, "\u3064\u3051\u308b": 14799, "##\u4e07": 4460, "\u7db1": 24205, "\u5c5e": 55771, "\u67a0\u7d44\u307f": 4491, "\u6d41\u5e03": 2731, "\u76ee\u6307\u3057": 32283, "\u30c9\u30e1\u30a4\u30f3": 9152, "\u7279\u6027": 16816, "\u751f\u4f53": 5889, "\u7269\u8cea": 34543, "\u30bf\u30f3\u30d1\u30af": 19281, "\u8102\u8cea": 2897, "##\u7cd6": 7738, "\u53cd\u5fdc": 51212, "\u30a2\u30df\u30ce": 6852, "\u9178": 38358, "##\u5343": 10506, "\u89e6\u5a92": 7871, "\u9175\u7d20": 17930, "\u9aa8\u683c": 6023, "\u30ed\u30d0\u30fc\u30c8": 23333, "\u30d5\u30c3\u30af": 5262, "\u9855\u5fae": 3892, "c": 79218, "\u540d\u4ed8\u3051": 24959, "\u819c": 11404, "\u52b9\u7387": 20560, "\u826f\u304f": 23602, "\u8caf\u8535": 4740, "\u5916\u90e8": 34677, "\u4f5c\u308a\u51fa\u3059": 2922, "\u70ad": 12266, "\u30c9\u30fc": 22344, "##\u30ad\u30f3\u30b9": 6541, "\u5229": 45045, "##\u5df1": 5658, "\u305f\u307e\u305f\u307e": 3938, "\u7d99\u7d9a": 40793, "\u706b\u661f": 7001, "\u6db2\u4f53": 11692, "\u3044\u308c": 12822, "\u30e1\u30bf\u30f3": 2900, "\u751f\u5b58": 12989, "\u6574\u3063": 3009, "\u63a2\u67fb": 8134, "\u7cfb\u5916": 3344, "\u60d1\u661f": 49325, "\u9707": 5788, "\u30b9\u30da\u30af\u30c8\u30eb": 7139, "\u30b0\u30ea\u30fc": 6161, "\u671f\u5f85": 35715, "\u6728\u661f": 5063, "SF": 19915, "\u96fb\u78c1": 8518, "\u6210\u308b": 7939, "\u77e5\u6027": 3264, "\u4f9d": 8933, "\u78ba\u8a8d": 68363, "\u3057\u3087\u304f": 3866, "##\u3076\u3064": 4118, "\u7dad": 3365, "##\u7ba1": 23627, "\u675f": 10307, "\u861a": 273, "##\u82d4": 1949, "\u7dd1\u8272": 8785, "\u8d64\u8272": 8142, "\u8910\u8272": 11384, "\u82d4": 990, "##\u8863": 14731, "##\u76f8": 18358, "cm": 68274, "\u4f53\u5236": 44102, "\u830e": 9731, "##\u72b6": 32927, "##\u305f\u3044": 12450, "\u53cc": 19950, "\u8ef8": 32500, "\u3064\u304f": 15830, "\u7c21\u5358": 27044, "\u4ee3\u7528": 5054, "\u80de\u5b50": 5896, "\u9802": 8577, "##\u7aef": 19190, "\u56a2": 3839, "\u7e41\u6b96": 17178, "\u84b4": 519, "\u6714": 3129, "\u3055\u304f": 5951, "\u751f\u6b96": 5623, "\u530d": 803, "##\u5310": 791, "\u679d": 16950, "\u82bd": 7442, "\u884c\u306a\u3046": 6280, "\u74b0": 24058, "\u30b7\u30c0": 3060, "\u4ea4\u4ee3": 20785, "\u914d\u5076": 3737, "##\u5375": 5119, "##\u7cbe": 5093, "\u7cbe": 27686, "\u3064\u304f\u308b": 5523, "\u6cf3": 8475, "\u63a5\u5408": 4596, "\u7d42\u4e86": 122498, "\u653e\u51fa": 13816, "##\u82bd": 5994, "##\u7cf8": 10793, "pro": 12178, "##ton": 10932, "##ema": 2057, "##\u7dd1": 8605, "\u3082\u3061": 8445, "\u8868\u9762": 27071, "\u4f38\u3073": 17257, "\u96cc\u96c4": 3179, "##\u682a": 3723, "\u5916\u898b": 9065, "\u5c0f\u3055\u304f": 15452, "\u96cc": 9151, "\u751f\u80b2": 8932, "\u6de1\u6c34": 5016, "\u6e7f": 10252, "\u597d\u3080": 5501, "##\u6f64": 4195, "\u7523": 30930, "\u9069\u5fdc": 9529, "\u6e13": 6576, "\u9727": 7244, "##\u9727": 3944, "##oss": 4105, "##est": 12557, "\u7551": 14757, "\u6c34\u7530": 6109, "\u571f": 52943, "\u8150": 4781, "##\u690d": 5159, "##\u76ae": 14466, "\u6606\u866b": 11214, "\u5c0f\u67c4": 2840, "\u5224": 11429, "##\u520a": 12461, "\u4e8b\u5178": 5560, "Br": 15123, "##yo": 8626, "\u30b9\u30ae": 2428, "\u30cf\u30a4": 63956, "##\u7db1": 14307, "\u30bc": 20780, "\u30de": 49856, "\u30d1\u30bf\u30fc\u30f3": 15797, "Pol": 4952, "##ys": 8974, "##por": 1347, "##ang": 7042, "\u5fae\u7d30": 2347, "RNA": 4915, "##\u85fb": 4174, "\u5f62\u8cea": 3691, "\u8272\u7d20": 3812, "##\u30ed\u30d5": 13880, "\u540c\u5316": 2544, "\u7cd6": 8961, "\u30c7\u30f3": 15640, "\u97ad": 4407, "\u6c34\u4e2d": 9370, "\u5668\u5b98": 4300, "\u5b88\u308b": 21046, "\u80da": 3722, "\u8eca\u8ef8": 3160, "Col": 7033, "##och": 2809, "##ae": 7385, "\u8fd1\u7e01": 5972, "\u58f7": 1121, "\u5e7c\u3044": 10759, "\u4f38\u3073\u308b": 5507, "\u7a2e\u5b50": 9324, "DNA": 13248, "##\u30ab\u30b2": 1369, "\u30ab\u30ba": 2979, "\u5148\u7956": 6488, "\u5e73\u884c": 9067, "\u63a1\u96c6": 5302, "\u6a19\u672c": 10362, "\u30ab\u30d3": 2759, "\u6301\u3061\u5e30\u3063": 2269, "\u64cd\u4f5c": 37160, "\u3060\u308d\u3046": 50936, "\u7802": 25699, "##\u5ca9": 11208, "##\u7c92": 3991, "\u96a0\u308c": 10327, "\u6b69\u307f": 3664, "\u9045\u3044": 7021, "\u808c": 6637, "\u6ca2": 14010, "\u5411\u304d": 12241, "\u305a\u3063\u3068": 27233, "\u9699\u9593": 3825, "\u7d20\u4eba": 3008, "##\u584a": 4142, "\u884c\u306a\u308f": 15947, "\u5c71\u9593": 4560, "\u8a2d\u5b9a": 94504, "\u5165\u308a\u53e3": 6369, "\u4f1d\u8aac": 33534, "\u4fdd\u5b58": 38180, "\u9670": 14278, "##\u5e72": 4323, "\u5305\u3093": 1984, "\u866b": 16581, "\u653e\u7f6e": 6154, "\u30dc\u30ed": 5490, "##\u30dc\u30ed": 4686, "\u623b\u3059": 4386, "\u30df\u30ba": 4200, "\u57f9\u990a": 4361, "\u63db": 5970, "\u8377": 11141, "##\u4f5c\u308a": 3628, "\u8a70\u3081": 9289, "##\u8102": 2694, "\u7dbf": 9436, "\u67af": 4683, "##\u6b7b": 22241, "\u6ce5": 9509, "##\u70ad": 5519, "\u71c3\u6599": 29040, "\u843d\u3061\u308b": 5081, "\u9262": 4277, "\u30d0\u30c3\u30af": 39449, "##\u30b0\u30e9\u30a6\u30f3\u30c9": 2438, "\u7015": 1887, "\u30c4\u30eb": 2573, "\u8ca9\u58f2": 138920, "Home": 2456, "\u30e1\u30ab\u30cb\u30ba\u30e0": 5222, "\u56e0\u679c": 2983, "\u30b3\u30f3\u30bb\u30d7\u30c8": 18945, "##\u51fa\u305d\u3046": 2702, "##\u4e71": 15582, "\u30b3\u30f3\u30c8": 8078, "\u79e9\u5e8f": 8215, "\u9032\u6b69": 12346, "\u5bc4\u4e0e": 8694, "\u30b7\u30e2\u30f3": 4332, "\u751f\u7406": 7098, "\u30b8\u30e7\u30f3": 59940, "\u30b9\u30c1\u30e5\u30a2\u30fc\u30c8": 2304, "\u30df\u30eb": 13846, "\u30cf\u30fc\u30d0\u30fc": 5472, "\u30b9\u30da\u30f3\u30b5\u30fc": 3109, "\u53d7\u3051\u7d99\u304c": 5406, "##\u304b\u3089": 7571, "\u529f": 14334, "\u884c\u306a\u3063": 16036, "\u6f6e": 13955, "\u30de\u30eb\u30af\u30b9": 11955, "\u30de\u30c3\u30af\u30b9": 11542, "##\u30fc\u30d0\u30fc": 3135, "##\u30b1\u30fc": 11766, "\u30b2\u30aa\u30eb\u30af": 4371, "\u30b8\u30f3": 12814, "##\u30e1\u30eb": 13433, "\u30f4\u30a3\u30eb": 10124, "##\u30d5\u30ec": 14056, "##\u30fb\u30d1": 11407, "##\u30ec\u30fc\u30c8": 9426, "\u30ad\u30fc": 41443, "\u5909\u3048": 29906, "##\u696d": 36001, "\u53d7\u3051\u7d99": 1605, "\u9023\u5e2f": 3453, "\u5275\u59cb": 7538, "\u7d99\u627f": 44978, "\u898f": 4029, "##\u6e96": 1429, "##\u5e95": 10903, "\u30bf\u30eb": 11323, "##\u30b3\u30c3\u30c8": 5502, "\u30d1\u30fc\u30bd\u30f3": 2667, "\u5247": 11915, "\u30ab\u30f3\u30c8": 4733, "##\u7acb\u3066": 13263, "\u30b7\u30f3": 30251, "##\u30dc\u30ea": 6808, "##\u306a\u3044": 14446, "\u30de\u30af\u30ed": 5269, "\u9650\u754c": 12894, "\u4e57\u308a\u8d8a\u3048": 4530, "\u5f15\u304d\u7d99\u3044": 12194, "\u5b9f\u5728": 10877, "\u552f": 5354, "\u30eb\u30fc\u30eb": 30750, "##\u3063\u3068": 6952, "\u6e96\u62e0": 5038, "\u30a2\u30d7\u30ed\u30fc\u30c1": 8174, "\u30b7\u30ab\u30b4": 19804, "\u898b\u305b\u308b": 12265, "\u30d7\u30e9\u30b0": 4827, "##\u30de": 129353, "##\u30c6\u30a3\u30c3\u30af": 15429, "\u9042\u3052": 8829, "\u7bc9\u304d": 5453, "##\u4e0a\u3052": 37796, "\u5909\u8c8c": 2959, "1893": 7901, "\u3081\u3050\u308b": 7789, "\u30a2\u30eb\u30d3": 4919, "\u30b9\u30e2": 7205, "\u30a6\u30a3\u30ea\u30a2\u30e0": 32688, "\u30c8\u30de\u30b9": 9271, "\u30d1\u30fc\u30af": 33120, "\u30a2\u30fc\u30cd\u30b9\u30c8": 2277, "\u30d0\u30fc\u30b8": 2547, "\u30eb\u30a4\u30b9": 15394, "\u30ef\u30fc\u30b9": 3756, "\u6709\u80fd": 2605, "1920": 25946, "##\u30ba\u30e0": 15309, "\u30ad\u30f3\u30b0": 26151, "\u30de\u30fc\u30c8": 4717, "\u6210\u3059": 4875, "##\u6709": 8432, "\u69cb\u60f3": 24303, "\u6b63\u3057\u304f": 7913, "\u3068\u3082\u3055": 3415, "\u30b1\u30cd\u30b9": 1983, "\u30a2\u30ed\u30fc": 4829, "\u6b20\u3051": 4032, "\u60e8": 5262, "##\u798d": 1150, "\u7406\u6027": 3180, "\u53cd\u7701": 4861, "\u30c6\u30aa": 7491, "##\u30c9\u30fc\u30eb": 6903, "\u30a2\u30c9": 20285, "##\u30de\u30b9": 17254, "##\u30c1\u30e5": 12020, "\u96e2\u53cd": 3144, "\u30df\u30cb": 32745, "\u30d1\u30e9\u30c0": 1165, "##\u30a4\u30e0": 3315, "\u8fce\u3048\u308b": 13644, "\u30a8\u30b9": 21015, "\u30d4\u30a8\u30fc\u30eb": 8822, "##\u30c7\u30e5\u30fc": 2564, "\u30b8\u30a7\u30fc\u30e0\u30ba": 19609, "\u30b3\u30fc\u30eb": 15646, "\u30b8\u30a7\u30f3": 9082, "##\u30d7\u30ea": 11093, "\u5fd8": 1947, "\u30ab\u30a6\u30f3\u30bf\u30fc": 5766, "\u30af\u30fc": 16571, "\u7d4c\u9a13": 75464, "\u7559\u5b66": 35615, "##\u30af\u30e9": 16494, "\u30eb\u30fc\u30de": 157, "\u82f1\u56fd": 27811, "\u30d6\u30ec": 16189, "\u30d6\u30ec\u30fc": 5623, "\u30a2\u30f3\u30bd\u30cb\u30fc": 4390, "##\u30c7\u30f3": 44439, "\u7cfb\u8b5c": 8226, "\u6253\u3061\u51fa\u3057": 4237, "Sol": 4024, "\u30ea\u30d9": 8655, "\u95a2\u308f\u308a": 9851, "\u53cd\u97ff": 6634, "##\u8d77\u3053": 4128, "\u30ea\u30b9\u30af": 15380, "\u9ad8\u307e\u308b": 3824, "\u4ee3\u308f\u308b": 5980, "\u30a2\u30af\u30bf\u30fc": 2758, "\u30cd\u30c3\u30c8\u30ef\u30fc\u30af": 33494, "\u5275\u9020": 13852, "\u55b6": 13417, "##\u70ba": 4257, "\u6620\u50cf": 60290, "\u96c6\u8a08": 4501, "\u3069\u308c": 12230, "##\u77ed": 1345, "SS": 21332, "##\u7406": 23265, "##GS": 3733, "\u7c73\u56fd": 48467, "\u518a": 21822, "\u8f14": 6493, "\u76db": 19868, "\u548c\u592b": 2373, "\u65e2\u5b58": 18191, "\u8a8c": 63601, "American": 3807, "Soci": 1895, "##olog": 2763, "##ical": 9272, "Rev": 4342, "##iew": 2672, "AS": 17251, "##\u6ede": 1656, "\u6c17\u5473": 4776, "\u9038\u8131": 2470, "\u5305": 9583, "##\u6442": 1031, "\u6392\u9664": 13537, "\u69cb": 2896, "\u6319\u304c\u3063": 2523, "\u52d5\u5411": 7626, "##\u636e": 1633, "\u5927\u8846": 13192, "\u5c11": 16538, "\u30c6\u30af\u30ce\u30ed\u30b8\u30fc": 6472, "\u7126\u70b9": 8470, "\u53d6\u308a\u7d44": 707, "\u30de\u30f3": 109123, "##\u30cf\u30a4\u30e0": 11948, "\u547d\u540d": 34761, "\u8cea\u554f": 22362, "\u30a2\u30ab\u30c7": 4030, "\u51fa\u6f14": 195187, "##\u4e38": 18178, "\u535a": 23604, "\u6295\u7a3f": 19624, "\u67fb": 5126, "\u544a\u767a": 7226, "\u66f4\u306b": 38472, "\u58f2\u4e0a": 16266, "##\u507d": 1983, "\u80b2\u3063": 8317, "\u597d\u304d": 85963, "##\u52dd": 30610, "##\u9054": 13769, "\u7406\u60f3": 12735, "\u6210\u529f": 100961, "\u7b49\u3057\u3044": 5877, "\u7686\u7121": 2700, "##\u30de\u30a4\u30aa\u30b9": 3026, "\u6ec5\u307c\u3055": 2459, "\u7802\u6f20": 9421, "\u6cb3": 32664, "\u904b\u3070": 7022, "\u704c\u6f11": 4116, "\u6c3e\u6feb": 3343, "##\u7554": 3871, "\u6069\u6075": 3131, "##\u30e1\u30c8": 5291, "\u9ed2\u3044": 13065, "\u5468\u56f2": 33080, "##\u30b7\u30a7": 15431, "\u5e45": 32541, "\u672c\u6d41": 3111, "\u652f\u6d41": 11943, "##\u4f4f": 10428, "\u4fbf\u5229": 8306, "##\u8239": 24891, "\u7d20\u65e9": 1354, "\u5229\u4fbf": 4766, "\u4e0a\u6d41": 16554, "\u30c7\u30eb\u30bf": 6310, "\u30d5\u30a1\u30e9": 5374, "\u79f0\u53f7": 20340, "\u81ea\u56fd": 8018, "\u4e88\u6e2c": 14069, "\u5929\u6587": 35511, "\u66a6": 18742, "\u30b7\u30ea\u30a6\u30b9": 1361, "\u6607": 22840, "\u8fb2\u5730": 7602, "\u914d\u5206": 5019, "\u6e2c\u91cf": 7263, "\u5e7e\u4f55": 8686, "##\u30fb\u30a8": 16226, "##\u30fb\u30db": 5778, "\u6b86\u3069": 10485, "\u30e1\u30bd": 6264, "##\u30dd\u30bf": 3120, "##\u30df\u30a2": 10070, "\u5efb": 5794, "\u5143\u53f7": 3441, "\u8aa4\u5dee": 4104, "\u9ece\u660e": 3819, "##\u30ea\u30b9": 21337, "\u7554": 2330, "\u30d5\u30a1\u30a4": 7029, "##\u30e6\u30fc": 4949, "440": 2808, "\u5ce1\u8c37": 2504, "##\u30e2\u30b9": 8647, "##50": 7490, "\u30e1\u30eb": 18769, "\u8ecd\u4e8b": 55221, "\u958b\u3044": 19307, "##\u30cd\u30b9": 25465, "\u8af8\u8aac": 6423, "\u30e1\u30f3": 21056, "##\u30d5\u30a3\u30b9": 6056, "##90": 2463, "##\u7d71": 5721, "##86": 1737, "\u4e00\u8cab": 14786, "\u5f37\u529b": 17779, "\u30b8\u30e7": 23158, "\u968e\u6bb5": 12027, "\u30d4\u30e9\u30df\u30c3\u30c9": 4239, "\u5893": 29011, "\u5bb0\u76f8": 5604, "\u30a4\u30e0": 2115, "##\u30db": 35497, "\u7a4d\u307f\u91cd": 3048, "##\u5893": 3956, "##13": 1935, "\u30b9\u30cd": 2804, "\u6700\u76db": 5543, "260": 5969, "##\u30d3\u30a2": 15838, "##\u30d3\u30e5": 7582, "\u6d3e\u9063": 50510, "\u5e83\u3052\u308b": 3476, "\u9580\u524d": 3011, "##\u30d5\u30a3\u30f3": 8733, "\u77f3\u9020": 2484, "\u30ec\u30f3\u30ac": 3655, "\u8010\u4e45": 7270, "##83": 1569, "94": 14255, "\u5728\u4f4d": 12375, "\u30da": 44169, "\u62e0": 6698, "\u4faf": 19320, "\u5d29\u5fa1": 4825, "\u7121\u5b9f": 2312, "##81": 1440, "\u7d42\u7109": 5389, "\u77ed": 41824, "\u7121\u529b": 2365, "\u5f8c\u7d99": 35275, "\u5185\u4e71": 2707, "##\u30ec\u30aa": 6162, "##\u30dd\u30ea\u30b9": 10135, "\u5236\u5727": 7225, "\u30c6\u30fc": 10350, "##\u30d9": 45524, "\u52c3": 2999, "206": 2955, "##\u30d8": 26320, "\u304a\u304b": 13584, "\u9020\u55b6": 6157, "\u58ee": 9056, "\u30a2\u30e1": 11345, "##\u30a8\u30e0": 5339, "##\u30cf": 59330, "\u30a4\u30c1": 8867, "\u30bf\u30a6": 5371, "\u9077": 6233, "\u6ce8\u3044": 3851, "\u6ce8\u304e": 2413, "\u30bb\u30f3": 9536, "\u7740\u5de5": 7835, "\u5e72": 12007, "##\u62d3": 3372, "\u5de5\u4e8b": 59759, "\u7a40": 2580, "##\u5009": 21745, "##\u30d5\u30fc": 7957, "\u30e9\u30d5": 9846, "\u5bfe\u5916": 5736, "\u30b7\u30ea\u30a2": 15070, "1850": 5709, "\u3064\u3065": 8457, "\u30b9\u30e0\u30fc\u30ba": 2462, "\u5f31\u4f53": 3705, "\u3064\u3044\u3067": 4000, "\u8af8\u4faf": 5720, "\u5206\u7acb": 2011, "##\u30bd\u30b9": 5554, "\u5f93\u5c5e": 4807, "\u8987\u6a29": 2604, "\u30ea\u30b9": 11586, "##\u30a2\u30d5": 1463, "##\u30e1\u30b9": 5123, "##\u9010": 1005, "\u753b\u671f": 3505, "\u6163\u4f8b": 3868, "\u8ffd\u3063": 7493, "\u6ec5\u307c\u3057": 3225, "\u30d1\u30ec\u30b9": 2857, "\u30e1\u30b9": 12391, "##\u529b": 43503, "##\u5f81": 4243, "##\u30d5\u30e9": 7365, "\u5730\u76e4": 6144, "\u5927\u56fd": 5456, "\u77f3": 130268, "\u5efa\u7acb": 14831, "\u9675": 13335, "\u738b\u5bb6": 5745, "\u65e9\u4e16": 3535, "147": 7561, "\u30cf\u30c8": 2385, "##\u30d7\u30b9": 13515, "\u5b9f\u6a29": 4271, "\u63e1\u308a": 3808, "##\u30f3\u30c8": 27053, "\u518d\u958b": 33156, "\u9000\u4f4d": 3413, "\u6226\u3044": 101443, "##\u5a01": 4569, "\u5b88\u8b77": 19849, "\u5949": 15091, "\u795e\u5b98": 2173, "134": 7024, "##\u30c6\u30f3": 29712, "\u540d\u4e57\u3063": 12147, "\u5d07\u62dd": 4958, "\u30a2\u30de": 15569, "\u9077\u90fd": 2656, "\u6539\u3081\u308b": 2815, "##\u958b": 13441, "\u6226\u95d8": 94085, "133": 8609, "##\u30e1\u30f3": 21154, "\u30eb\u30ca": 4988, "\u82e5\u304f": 4410, "\u6b7b\u53bb": 85486, "\u30db\u30eb": 16130, "##\u30d6": 119155, "\u5b98\u50da": 15011, "\u843d\u3061": 29881, "\u7d99": 13095, "##\u55e3": 5577, "\u30e9\u30e0": 16174, "\u6307\u540d": 39839, "##\u7b4b": 11533, "\u7687\u4f4d": 2538, "\u79fb": 6194, "\u8001": 20387, "##\u9f62": 7847, "\u306a\u304f\u3057": 5341, "129": 6490, "\u81a8\u5f35": 4091, "127": 7711, "\u30aa\u30ed": 3754, "##\u30bf\u30ea": 10425, "\u75db\u307f": 7308, "\u30cf\u30c3\u30c8": 6057, "##\u30a5": 18033, "\u7c98\u571f": 4171, "\u677f": 42341, "##\u30d7\u30bf": 3888, "\u6483\u9000": 7117, "\u5049\u5927": 7215, "\u4e0b\u308a": 15760, "##\u5742": 22846, "107": 7656, "\u6ec5": 4429, "\u544a\u3052": 10385, "\u52a3\u52e2": 2846, "\u53f8\u796d": 7187, "108": 8671, "\u30d8\u30ea": 8728, "106": 8285, "##\u30cb\u30b9": 14041, "\u50ad\u5175": 4348, "747": 2415, "\u30d4\u30a2": 10299, "\u9032\u6483": 5849, "\u30a2\u30c3\u30b7\u30ea\u30a2": 4149, "\u5727\u8feb": 3991, "##\u30c9\u30f3": 13079, "\u3046\u3051": 7296, "\u596a\u56de": 3151, "\u30a2\u30c3\u30b7\u30e5": 2804, "66": 20620, "\u843d\u3068\u3055": 2749, "\u64a4\u9000": 31952, "\u30b5\u30a4": 25262, "\u30cd\u30b3": 5780, "\u9593\u63a5": 7084, "##\u30c6\u30a3\u30b3": 3728, "\u907a": 24132, "##\u9818": 27421, "\u30d0\u30d3": 5696, "##\u30ed\u30cb\u30a2": 3585, "\u30cd\u30d6": 3020, "\u9813\u632b": 3482, "\u7af6\u308a": 3445, "\u7e70\u308a\u8fd4\u3057": 23785, "\u30aa\u30ea\u30a8": 3700, "550": 5847, "\u30ad\u30e5": 11864, "\u30ab\u30f3": 38250, "121": 8097, "##\u30ec\u30a4": 22621, "\u738b\u4f4d": 14216, "\u7de9": 11217, "\u30a2\u30df": 11993, "404": 1403, "\u9054\u6210": 47246, "##\u30eb\u30bf": 7332, "##\u30a4\u30aa\u30b9": 393, "\u6ec5\u3073": 2173, "39": 39922, "\u72d9\u3063": 8651, "\u8ecd\u52e2": 8008, "\u30cd\u30af": 5635, "\u5f3e\u5727": 6962, "\u5727": 11152, "\u6577": 10485, "\u30de\u30b1\u30c9\u30cb\u30a2": 7058, "\u30a2\u30ec\u30af\u30b5\u30f3\u30c9\u30ed\u30b9": 2874, "\u6ec5\u307c\u3059": 1389, "\u30c7\u30a3\u30a2": 13656, "305": 2652, "\u30bb\u30ec": 12993, "##\u30b3\u30b9": 10079, "\u30a2\u30f3\u30c6\u30a3": 8077, "\u30d8\u30ec": 4898, "##\u30cb\u30ba\u30e0": 5971, "\u4e2d\u67a2": 5479, "##\u6e2f": 15329, "\u30a2\u30ec\u30af\u30b5\u30f3\u30c9\u30ea\u30a2": 3079, "\u5584": 30120, "##\u611a": 718, "##\u5c40": 16277, "\u75b2\u5f0a": 2372, "\u6bba\u3055": 14365, "\u76f4\u7cfb": 2733, "51": 32344, "\u30ac\u30a4\u30a6\u30b9": 2748, "\u30e6\u30ea\u30a6\u30b9": 4874, "\u30ab\u30a8\u30b5\u30eb": 3692, "##\u30cb\u30a6\u30b9": 6937, "\u8abc": 530, "\u56f3\u3063": 13623, "##\u30a6\u30a3": 14378, "##\u30cc\u30b9": 26130, "##\u30a6\u30e0": 15745, "\u6d77\u6226": 13599, "\u5c5e\u5dde": 3263, "\u30a2\u30a8": 3896, "##\u30d7\u30c8": 6622, "##\u30a5\u30b9": 5806, "\u30b3\u30e0": 10084, "\u98df\u3044": 7666, "\u30c9\u30a6": 2471, "\u767a\u9175": 4897, "380": 4084, "\u30aa\u30aa": 8113, "\u30d3\u30fc\u30eb": 15821, "\u30ef\u30a4\u30f3": 20968, "\u30d6\u30c9\u30a6": 7861, "\u9ea6": 6871, "##\u8cb4": 10863, "\u98f2\u3093": 9255, "\u4f4e\u304f": 14818, "\u4e26\u3093": 16042, "\u98df\u7269": 4969, "\u7687\u5973": 2901, "\u592b": 37772, "\u5e73\u6c11": 2900, "\u3068\u304a\u308a": 22916, "\u8ca0\u3063": 9370, "\u30a8\u30c1\u30aa\u30d4\u30a2": 5878, "\u9ad8\u539f": 12941, "##\u4f4d": 34795, "\u9244\u7832": 3547, "\u7a4f\u3084\u304b": 4915, "\u571f\u58cc": 9148, "\u80a5\u6599": 3716, "\u66f4\u65b0": 35903, "\u6d45\u3044": 4401, "\u6c34\u8def": 8162, "\u6398": 6300, "\u30d9\u30a4": 27865, "\u8015\u4f5c": 3470, "##\u9ea6": 2240, "\u5c0f\u9ea6": 5630, "\u91ce\u83dc": 11788, "\u30bf\u30de": 7501, "##\u30cd\u30ae": 4408, "##\u30cb\u30af": 7356, "##\u30c7\u30a3\u30c3\u30b7\u30e5": 1541, "##\u30bf\u30b9": 8604, "\u8c46": 8933, "\u30bd\u30e9": 3666, "\u679c\u5b9f": 9402, "\u30ca\u30c4": 2277, "\u30b6\u30af": 3271, "\u30aa\u30ea\u30fc\u30d6": 3350, "\u30b9\u30a4": 7064, "\u30e1\u30ed\u30f3": 2829, "\u30e2\u30e2": 2316, "\u8015": 8987, "\u5fb4": 8385, "##\u7a0e": 12814, "##\u5eab": 5798, "\u98df\u6599": 11231, "\u4e0d\u8db3": 32567, "\u8fb2": 24981, "##\u5974": 2013, "\u5831\u916c": 8385, "\u96c7\u308f": 3497, "##\u30ef\u30f3": 13240, "\u9061": 5076, "\u963b\u5bb3": 9573, "\u5357\u4e0b": 5349, "\u5404\u6240": 4219, "\u304b\u3051\u308b": 11717, "\u5c0f\u56fd": 2225, "\u6297\u4e89": 10751, "\u7e70\u308a\u5e83\u3052\u308b": 3259, "\u4e73": 21276, "##\u9999": 19981, "\u6ca1": 15212, "##\u85ac": 12891, "##\u7259": 2788, "\u5ef6\u3073\u308b": 1999, "##\u30fb\u30cf": 13350, "##\u30f3\u30de": 1738, "\u7523\u51fa": 6623, "\u9271\u7269": 7321, "\u8cc7\u6e90": 20592, "\u30ec\u30d0\u30ce\u30f3": 4823, "\u6749": 12279, "\u7460": 3063, "##\u7483": 3743, "\u30a4\u30e9\u30af": 14869, "\u30a4\u30e9\u30f3": 18131, "\u30a2\u30d5\u30ac\u30cb\u30b9\u30bf\u30f3": 7301, "\u9020\u8239": 16197, "\u826f": 38070, "##\u6750": 14860, "\u51fa\u8377": 8382, "\u30df\u30ce": 3822, "##\u6cbf\u3044": 2191, "\u9678": 27924, "\u7d05": 16514, "\u6cbf\u3044": 24580, "\u6e2f": 63031, "\u6cbf": 5617, "\u304a\u3053\u306a\u308f": 5016, "\u8ca8\u5e63": 9368, "\u91d1\u5c5e": 32113, "\u92f3\u9020": 5525, "\u9810\u3051": 5507, "\u9810": 4991, "\u7d4c\u904e": 18422, "\u4ea4\u63db": 42674, "\u65e9": 33485, "\u6b62\u307e\u308a": 3901, "\u5bcc": 31867, "\u6ca1\u843d": 3562, "\u6570\u5b66": 29740, "\u8ab2\u7a0e": 6150, "\u652f\u7d66": 8165, "##ier": 9221, "##\u523b": 9154, "\u30a2\u30d6": 14802, "##\u30a8\u30e9": 4516, "##era": 5907, "\u4e26\u884c": 16625, "\u30c7\u30e2": 18742, "Dem": 2025, "##\u30e1\u30fc\u30eb": 4995, "\u81ea\u4f1d": 4712, "\u8ffd\u60bc": 6219, "\u60b2": 18706, "\u77e5\u6075": 3443, "\u6559\u8a13": 2908, "##\u30eb\u30b9": 21953, "\u88d5\u798f": 5822, "\u5bb6\u5ead": 37210, "\u65bd\u3055": 12215, "\u4e0b\u5c64": 3273, "\u5b50\u5f1f": 2261, "\u6388\u696d": 40381, "\u5100\u793c": 5363, "\u846c": 7947, "##\u796d": 6124, "\u7d4c\u5178": 3095, "\u6ce8": 12667, "\u52c9\u5f37": 96488, "\u7c3f": 5558, "\u5b98\u5e81": 3512, "\u66f8\u985e": 7777, "\u5b66\u3093": 29488, "\u6c34\u6cf3": 8527, "\u30dc\u30fc\u30c8": 13821, "\u30ec\u30b9\u30ea\u30f3\u30b0": 11142, "\u5f13": 12363, "##\u7f70": 7074, "##\u6253\u3061": 7504, "\u76e3\u7981": 3428, "\u6020": 5751, "\u901a\u3046": 16724, "\u5c06\u6765": 29579, "\u5f79\u4eba": 6210, "\u5fd7\u671b": 4432, "\u52c9": 4254, "\u9032\u3081\u308b": 10834, "\u9001\u3089": 16448, "\u7acb\u6d3e": 3769, "\u4fdd\u7ba1": 12831, "\u8a2d\u5099": 34667, "\u8a13\u7df4": 40535, "\u53cc\u65b9": 17225, "\u5199\u672c": 7616, "\u60a3\u8005": 27435, "\u8a66\u9a13": 98492, "\u5b9a\u304b": 4255, "\u7537\u5b50": 44969, "\u624b\u4f1d\u3044": 5350, "\u6d17\u7df4": 3898, "\u624b\u9806": 5570, "\u8e0f\u3093": 3575, "\u6cd5\u7684": 13115, "\u30ab\u30fc": 88682, "\u5206\u914d": 5535, "\u53d6\u308a\u6271\u3063": 3438, "\u7acb\u6cd5": 10025, "\u81e3\u4e0b": 2224, "\u5211": 19922, "\u53b3": 12526, "##\u3057\u304b\u3063": 25738, "\u5a66": 11046, "\u4fdd\u8b77": 63642, "\u6cd5\u5ef7": 8682, "\u30b1\u30cd": 1111, "\u6b7b\u5211": 16685, "\u8a3c\u62e0": 19830, "\u63d0\u51fa": 30561, "\u5224\u6c7a": 28925, "\u8ca0\u3051": 32098, "\u4e0b\u3055": 5643, "##\u8a17": 6398, "\u5100\u5f0f": 10854, "\u539f\u544a": 3671, "\u5bb9\u7591": 12443, "\u30ea\u30b9\u30c8": 35029, "\u8aad\u307f\u4e0a\u3052": 2860, "\u72af\u4eba": 13075, "##\u5019": 5340, "\u5815": 3981, "\u60aa": 40129, "##X": 50567, "\u308f\u305f\u308a": 15570, "\u4e00\u9023": 18008, "\u6697\u304f": 2910, "\u8513\u5ef6": 2555, "\u6ce5\u68d2": 3239, "\u4f59": 32358, "\u51e6\u7f6e": 6013, "\u8b1b\u3058": 3342, "\u91cd\u70b9": 7788, "\u82b1\u5d17": 2752, "\u63a1\u6398": 7751, "\u512a\u308c": 26275, "\u30eb\u30af": 5781, "##\u30bd\u30fc\u30eb": 2455, "##\u30fb\u30b7": 12634, "\u5165\u624b": 17680, "##\u6728": 70471, "\u6280\u6cd5": 10810, "\u30c1\u30e3": 32286, "##\u30ea\u30aa\u30c3\u30c8": 974, "\u984c\u6750": 16366, "\u30d5\u30a3\u30af\u30b7\u30e7\u30f3": 5430, "\u4f5c\u5bb6": 56737, "\u30ab\u30a4\u30ed": 4114, "\u30b9\u30fc\u30c0\u30f3": 4178, "\u56fd\u5883": 24539, "\u63a5\u3059\u308b": 14001, "\u9762\u3057": 11652, "\u56fd\u571f": 17668, "\u6cb3\u53e3": 10836, "##\u53f7": 24610, "\u7ffb": 6387, "\u30df\u30b9": 23690, "Kh": 2620, "##em": 12873, "\u4e00\u6d3e": 4023, "\u30e9\u30a4\u30e0": 2352, "\u30df\u30c4": 3807, "##\u30e9\u30a4": 26418, "Ar": 13486, "Re": 20832, "##ublic": 3549, "##gy": 3963, "##pt": 11189, "\u30a4\u30fc": 25249, "##ian": 16844, "\u9b42": 12913, "\u3061\u306a\u3080": 3996, "\u57c3": 784, "##\u53ca": 3304, "\u5927\u738b": 6681, "\u6804\u3048": 7727, "\u5e83\u307e\u308a": 2701, "\u30a2\u30e0": 14366, "\u30a4\u30d6\u30f3": 3982, "\u30a2\u30fc\u30b9": 6520, "##\u30d0\u30fc\u30b9": 4079, "\u8870\u3048": 5328, "\u30c8\u30a5\u30fc": 11736, "\u30eb\u30fc\u30f3": 1788, "\u30b7\u30fc\u30c9": 8743, "96": 17565, "\u30c1\u30e5\u30cb\u30b8\u30a2": 2803, "\u30d5\u30a1\u30fc": 17074, "##\u30c6\u30a3\u30de": 3005, "\u30de\u30e0": 2847, "\u672c\u62e0": 27781, "250": 17523, "\u5974\u96b7": 20248, "151": 9390, "\u30e0\u30cf\u30f3\u30de\u30c9": 7595, "\u30a2\u30ea\u30fc": 5483, "\u304d\u3063\u304b\u3051": 38943, "##\u62fe": 2411, "\u638c\u63e1": 7010, "\u968a\u9577": 6410, "\u5b9f\u529b": 12104, "\u5c31\u4efb": 130188, "\u9032\u3081": 47380, "\u4e16\u8972": 4562, "\u5e83\u3052": 10342, "\u5217\u5f37": 3099, "\u77db\u76fe": 8385, "##\u82b1": 26990, "\u8fb2\u7523": 3452, "\u5c02\u58f2": 2651, "1838": 2894, "1845": 3354, "\u4e09\u89d2": 15714, "\u5830": 5224, "##\u5824": 3295, "\u5de5": 20366, "\u5ef6\u3073": 2890, "\u3088\u3046\u3084\u304f": 14832, "\u5b8c": 12669, "##\u5de5": 15763, "1858": 4611, "\u50b5": 4071, "##\u5238": 9670, "\u767a\u884c": 68151, "\u8ca1\u653f": 24838, "\u7aae": 3489, "##\u8feb": 6506, "\u6255\u3044": 6282, "##\u8fbc\u3080": 36236, "\u51fa\u8cc7": 14792, "\u5272\u5f15": 7023, "\u9280\u884c": 73535, "\u8fd4\u6e08": 4000, "\u30a4\u30b9": 9814, "##\u30a4\u30fc": 8818, "\u30d1\u30b7": 3655, "##\u30e3": 41024, "\u88c1\u5b9a": 3380, "\u8cac\u4efb": 43095, "\u64cd\u696d": 4159, "##\u8eca": 20172, "1869": 7314, "1862": 6445, "1873": 8167, "\u5de8\u984d": 2525, "\u3084\u3080\u306a\u304f": 2391, "\u6301": 17127, "\u30dd\u30f3\u30c9": 17288, "\u58f2\u5374": 22339, "1876": 7042, "\u30c7\u30d5\u30a9\u30eb\u30c8": 2436, "\u8ca0\u50b5": 4460, "\u511f": 3366, "##\u9084": 5912, "\u8535": 20746, "\u30aa\u30fc\u30b9\u30c8\u30ea\u30a2": 34311, "##\u30b8\u30e5\u30fc\u30eb": 969, "\u76f4\u8f44": 7296, "\u79fb\u7ba1": 14984, "\u6ede": 4756, "1882": 7033, "\u30a2\u30d5": 13791, "##\u30de\u30c9": 3727, "\u30aa\u30e9": 8717, "##\u30d3\u30fc": 37031, "\u6b66\u529b": 6319, "\u93ae\u5727": 9768, "\u652f\u51fa": 4883, "\u5927\u5e45": 28540, "\u30ab\u30c3\u30c8": 20353, "\u958b\u6226": 8618, "\u5207\u308a\u96e2": 4704, "##\u30b0\u30eb": 15919, "\u902e\u6355": 36363, "1919": 16813, "1922": 16334, "\u7fcc\u5e74": 60700, "\u7acb\u61b2": 8048, "\u67a2": 3171, "##\u8ef8": 8971, "\u56fd\u8ecd": 4810, "##\u8ecd": 33755, "\u6df1\u523b": 12133, "1949": 26089, "\u30e0\u30b9\u30ea\u30e0": 8388, "\u540c\u80de": 2355, "\u52d5\u63fa": 3839, "1952": 24883, "\u79d8\u5bc6": 21132, "\u5c06\u6821": 10901, "\u30af\u30fc\u30c7\u30bf\u30fc": 9000, "\u30eb\u30fc\u30af": 3230, "\u8ffd\u3044": 25367, "##\u8fbc\u307f": 45862, "\u534a\u5e74": 13799, "##\u30ae\u30fc": 9954, "\u517c\u52d9": 6937, "\u5927\u7d71\u9818": 80209, "\u30ca\u30fc": 10509, "\u30de\u30fc\u30eb": 6738, "\u30a2\u30d6\u30c9\u30a5": 3755, "\u51b7\u6226": 6169, "\u4e2d\u7acb": 7897, "\u6c4e": 3763, "\u540c\u5e74": 251033, "\u56fd\u6709": 13267, "1958": 26226, "1961": 27316, "\u8131\u9000": 16930, "1967": 32559, "\u60e8\u6557": 2832, "\u6c42": 10371, "\u5931\u3063": 25790, "\u30b5\u30fc": 38813, "\u6025\u6b7b": 4940, "\u5f8c\u4efb": 16633, "##\u30ef\u30eb": 6607, "\u897f\u5074": 25191, "\u878d": 8109, "1971": 35676, "\u6368\u3066": 14174, "\u8235": 3578, "\u5207\u308b": 5641, "\u5de6\u6d3e": 6203, "\u30a4\u30b9\u30e9\u30fc\u30e0": 10414, "\u5bb9\u8a8d": 3634, "\u7269\u4fa1": 4152, "\u6297\u8b70": 17685, "\u7d50\u515a": 2936, "\u5de6\u7ffc": 10793, "\u548c\u5e73": 7594, "\u904e\u6fc0": 7304, "##\u30cf\u30fc": 17965, "##\u30e9\u30af": 10003, "\u30af\u30a6\u30a7\u30fc\u30c8": 2540, "\u53ce\u652f": 3124, "\u6607\u683c": 43517, "\u5354\u8abf": 4489, "\u72ec\u88c1": 8043, "##\u30d0\u30e9": 11858, "\u6e7e\u5cb8": 5775, "\u6e1b\u3089\u3059": 5255, "\u7d2f": 5997, "##\u7a4d": 16528, "\u8ca2\u732e": 50019, "##\u6d88\u3057": 2163, "\u30b5\u30a6\u30b8\u30a2\u30e9\u30d3\u30a2": 4790, "\u57fa\u91d1": 8709, "IM": 7715, "\u30b9\u30bf\u30f3\u30c9": 10725, "\u30af\u30ec\u30b8\u30c3\u30c8": 17196, "\u8abf\u6574": 28362, "SA": 20834, "##L": 116426, "\u4f9b\u4e0e": 3980, "\u30af\u30e9\u30d6": 115486, "\u524a\u6e1b": 14465, "\u5408\u610f": 23481, "##\u30c3\u30b0": 16786, "\u70ba\u66ff": 4119, "\u30ec\u30fc\u30c8": 5943, "\u6709\u5229": 10348, "\u559c": 24359, "##\u6368": 1172, "1997": 61483, "\u95d8\u4e89": 11872, "\u767a\u4ee4": 4573, "\u4e8b\u614b": 26088, "\u30e0\u30eb": 4638, "\u30b8\u30e3\u30b9": 5710, "##\u30df\u30f3": 18809, "\u767a\u3057": 10329, "\u8f9e\u4efb": 18791, "\u9a12": 5556, "\u5168\u6a29": 5148, "\u66ab\u5b9a": 14298, "2012": 148864, "\u5f53\u9078": 38164, "\u6c7a": 14576, "\u6295\u7968": 48371, "##\u61b2": 9852, "\u89e3\u6563": 40162, "\u983b\u767a": 3278, "2013": 139900, "\u5f53\u5c40": 16040, "\u6b7b\u4ea1": 47219, "\u51e6\u7f70": 5062, "\u30a4\u30d6": 4708, "##\u30d2\u30fc": 6736, "\u671b\u3080": 7516, "\u4e0b\u843d": 3221, "##\u8ca8": 10326, "\u6e96\u5099": 39300, "\u540c\u6708": 17406, "\u30ed\u30a4": 9080, "\u5831\u3058": 19456, "\u30c9\u30d0\u30a4": 3612, "\u30a8\u30df": 7378, "##\u30ec\u30fc\u30c4": 691, "##D": 120679, "\u8cb7\u53ce": 27974, "\u30aa\u30a4\u30eb": 8636, "\u30de\u30cd\u30fc": 5958, "\u30d5\u30a3\u30ca\u30f3\u30b7\u30e3\u30eb": 2072, "\u30bf\u30a4\u30e0\u30ba": 8300, "\u5ddd\u4e0a": 6132, "\u30c0\u30e0": 50061, "\u30b9\u30c8\u30ec\u30b9": 8625, "\u9810\u91d1": 4782, "\u5229\u5bb3": 3192, "\u682a": 18267, "\u30e1\u30ac": 11978, "\u7652": 5859, "\u7591\u308f": 6367, "\u5185\u6226": 13124, "\u8ecd\u90e8": 3574, "\u4e0b\u65ec": 10582, "\u91c8\u653e": 9375, "\u5fa9\u5e30": 63473, "CN": 5182, "\u77f3\u6cb9": 20025, "\u30d2\u30e5\u30fc\u30b9\u30c8\u30f3": 6774, "\u30a2\u30d1": 8053, "##\u30c3\u30c1": 37206, "\u6cb9": 27603, "\u9996\u9577": 10690, "\u7533\u3057\u51fa": 8358, "##\u30d6\u30ea\u30f3": 4208, "##\u30d6\u30e9\u30fc": 2671, "\u7d9a\u6295": 2352, "##\u30c9\u30eb\u30d5": 10936, "##\u30fb\u30a2": 29899, "##\u30c3": 51039, "\u30d7\u30ed\u30b8\u30a7\u30af\u30c8": 49223, "\u63a8\u3057\u9032\u3081": 3337, "\u5411\u3053\u3046": 4651, "700": 17200, "\u5e73\u65b9": 25808, "\u30ad\u30ed\u30e1\u30fc\u30c8\u30eb": 17039, "\u4e88\u5b9a": 98387, "\u4ea4\u308f\u3057": 6309, "\u30a8\u30de": 7928, "\u30d7\u30ed\u30d1": 2470, "\u80a1": 3647, "\u4efd": 734, "\u6709\u9650": 16804, "\u516c\u53f8": 5045, "##\u8ac7": 12745, "##\u30de\u30fc\u30af": 3279, "\u8acb\u3051\u8ca0": 3109, "2018": 130142, "\u76f8\u5834": 3433, "\u58f2\u3089": 4814, "\u540c\u884c": 9561, "##\u5165": 24148, "\u4e3b\u6a29": 6732, "##\u7d19": 15737, "\u30ac\u30fc\u30c7\u30a3\u30a2\u30f3": 1981, "\u30d0\u30fc\u30af": 8613, "##\u30d5\u30a1": 30880, "##\u6b62\u3081\u308b": 1668, "##\u9280": 9827, "\u878d\u8cc7": 5488, "\u4e2d\u65ec": 8342, "\u59a5\u5354": 4361, "\u682a\u4fa1": 3370, "\u7591\u3044": 9398, "\u5143\u9996": 3871, "\u53f8\u4ee4": 59214, "\u4efb\u671f": 12693, "Su": 13213, "Pres": 3942, "##ide": 19108, "Elect": 2695, "##ion": 35061, "Comm": 7604, "SPEC": 585, "\u9577\u5b98": 36190, "\u517c\u4efb": 12314, "\u4efb": 14078, "\u8ca0\u3046": 5232, "##\u30de\u30fc\u30eb": 3886, "\u7d42\u8eab": 3154, "\u898b\u9003": 2278, "\u4fe1\u4efb": 4842, "\u7a81\u304d": 12589, "\u7fcc\u65e5": 22805, "\u4ee3\u884c": 9136, "\u89e3\u4efb": 10530, "##\u623b": 4592, "\u6c11\u653f": 3001, "\u30de\u30b8": 8770, "\u30b7\u30e3\u30a2": 1782, "\u8b70\u5e2d": 18935, "270": 5619, "\u30a4\u30b5": 4620, "##\u30fb\u30b7\u30e3": 4432, "##\u30e9\u30d5": 8054, "\u6f14\u8aac": 11778, "\u65e5\u9593": 34211, "\u5927\u52e2": 6803, "\u7de9\u548c": 10839, "\u7121\u52b9": 8849, "\u8a8d\u5b9a": 35046, "\u547d\u3058": 30264, "\u516c\u8868": 21768, "\u91ce\u515a": 8065, "\u5408\u6cd5": 7335, "\u516c\u6b63": 5666, "\u6c11\u4e3b": 78360, "\u4e2d\u9053": 3907, "\u4eca\u56de": 21159, "\u9752\u5e74": 26275, "\u6cd5\u5178": 3913, "\u62c5\u5f53": 154030, "\u30ea\u30fc\u30c0\u30fc": 21429, "\u30bd\u9023": 43619, "\u30ad\u30e3\u30f3\u30d7": 17932, "##\u30d3\u30c3\u30c9": 2972, "\u56fd\u4ea4": 3941, "\u4ec7": 4277, "\u61a4": 2580, "##\u6fc0": 1957, "\u5805": 13844, "##\u6301": 10695, "\u691c": 17199, "##\u554f": 10042, "\u4fee\u5fa9": 12486, "\u4e00\u7dda": 3962, "\u30ab\u30bf\u30fc\u30eb": 3323, "\u67b6\u6a4b": 3853, "\u5f80\u6765": 4726, "##\u5408\u308f": 3606, "\u898b\u7a4d": 4705, "##\u3082\u308a": 5184, "\u5175\u529b": 8934, "\u4e88\u5099": 24698, "\u5f79": 167568, "\u5175\u54e1": 4036, "\u9678\u8ecd": 78309, "\u6d77\u8ecd": 108288, "\u7a7a\u8ecd": 29074, "\u9632\u7a7a": 6062, "\u5185\u52d9": 13320, "\u89aa\u885b": 8443, "\u6d88\u8017": 3611, "\u6bce\u56de": 11108, "##\u6208": 146, "##IL": 8155, "\u6383\u8a0e": 2385, "\u7206\u6483": 20272, "NATO": 5326, "\u89aa\u5bc6": 2930, "\u6b66\u5668": 29973, "##\u9732": 5794, "\u7533\u8acb": 20216, "\u6700\u4e0a": 6583, "\u8a33\u3055": 5062, "\u5927\u307e\u304b": 3103, "\u30b7\u30e3\u30eb": 8181, "\u6d77\u629c": 3657, "\u30bf\u30fc": 18483, "\u4f4e\u5730": 5060, "\u30b8\u30d6": 3668, "##\u30b5\u30eb": 6636, "\u5c71\u5730": 14951, "\u5cf0": 16609, "\u30ab\u30c6": 4444, "\u65e7\u7d04": 3315, "\u8056\u66f8": 20061, "\u6212": 9047, "\u6388\u304b\u3063": 1837, "\u7d30\u304f": 3308, "##\u3073\u308c": 2871, "##\u5ce1": 1640, "\u7d30\u3044": 4676, "\u52d5\u8108": 6888, "##\u96a3": 4713, "\u9752": 50455, "\u5317\u4e0a": 7139, "\u4ee5\u5317": 4837, "\u7a20": 755, "##\u5bc6": 11326, "\u30b7\u30e5\u30fc\u30c8": 8630, "\u8fd1\u8fba": 4801, "\u6247": 12588, "\u5869": 38183, "\u30aa\u30a2\u30b7\u30b9": 2835, "##\u3089\u304b": 6881, "\u6db8": 539, "##\u30fc\u30d5": 6233, "\u30ec\u30a4": 59217, "\u70b9\u5728": 5355, "\u4ee5\u6771": 2542, "\u964d\u96e8": 2539, "\u4f1a\u8b70": 83040, "\u6771\u7d4c": 3394, "\u76f4\u7dda": 19059, "\u5b9f\u52b9": 3412, "\u30cf\u30e9": 6676, "\u30c8\u30e9\u30a4\u30a2": 3821, "##\u30f3\u30b0\u30eb": 2512, "\u9818\u6709": 6268, "##\u30a3\u30fc": 16616, "\u65e5\u4e2d": 15741, "BR": 9374, "##IC": 17223, "NEXT": 2601, "\u30e2\u30ed\u30c3\u30b3": 5317, "\u53ce\u5165": 27102, "\u5728": 38350, "\u9001": 14588, "##\u91d1": 24902, "##\u6613": 3510, "\u4eca\u5f8c": 19159, "\u898b\u8fbc\u307e": 3504, "IT": 13115, "\u539a\u304f": 3646, "\u30c9\u30ca\u30eb\u30c9": 6591, "\u30c8\u30e9\u30f3\u30d7": 7106, "\u654f": 14102, "##\u8155": 4748, "\u8d77\u7528": 35949, "\u8cb7\u3044\u7269": 7925, "\u6599\u91d1": 22722, "\u73fe\u91d1": 6909, "\u7a93\u53e3": 8509, "\u624b\u7d9a\u304d": 10896, "\u30c1\u30c3\u30d7": 10945, "\u6e21\u3059": 3664, "##\u4ed8\u3044": 4234, "\u6c7a\u6e08": 4800, "\u65b0\u578b": 21718, "\u30b3\u30ed\u30ca": 14629, "\u611f\u67d3": 36599, "\u307e\u3063": 8674, "\u901a\u5e74": 2322, "\u983c": 25738, "\u6e1b\u308a": 3194, "\u305b\u304d": 7310, "##\u6b62\u3081": 9939, "\u30b3\u30f3\u30c8\u30ed\u30fc\u30eb": 12591, "\u4e0a\u304c\u3063": 10197, "\u6295\u5165": 24928, "\u30b3\u30b9\u30c8": 19202, "\u88fd": 90671, "\u88fd\u54c1": 53827, "##\u5875": 3039, "\u62dd": 11935, "\u6a5f\u68b0": 40000, "\u904e\u5270": 8908, "\u898b\u53d7\u3051": 3964, "\u8cbb": 32280, "\u798f\u7949": 21218, "\u4e4f\u3057\u304f": 2139, "\u80b2\u6210": 24950, "\u53d6\u308a\u7d44\u3093": 10181, "\u56fd\u55b6": 5992, "\u6c11\u55b6": 10864, "\u9ad8\u9a30": 3922, "\u53f0": 129597, "\u4f4e\u8ff7": 10514, "\u5207\u308a": 27716, "##\u4e0b\u3052": 10061, "\u5065\u5168": 4166, "\u8fb2\u85ac": 2645, "##\u7d66": 12767, "\u679c\u7269": 5351, "\u30b8\u30e3\u30e0": 4036, "\u52a0\u5de5": 19795, "\u8f38\u51fa": 22551, "##\u30fc\u30b7": 8347, "\u539f\u6599": 10850, "\u8cc4": 3316, "\u30b3\u30e1": 4689, "\u98df\u7ce7": 7488, "\u914d\u7d66": 13614, "\u8ca8\u7269": 37285, "\u8f38\u9001": 71043, "\u30c8\u30e9\u30c3\u30af": 43935, "\u30b7\u30a7\u30a2": 11103, "\u30d5\u30a1\u30eb": 7044, "##\u30fc\u30ab": 3580, "\u5e06": 6929, "\u30ea\u30d0\u30fc": 6474, "\u30af\u30eb\u30fc\u30ba": 5231, "\u904b\u822a": 15398, "\u55b6\u696d": 73813, "\u30ad\u30ed": 17121, "06": 10884, "\u8d77\u70b9": 12994, "\u822a\u7a7a": 133582, "\u30d5\u30e9\u30c3\u30b0": 3246, "\u30ad\u30e3\u30ea\u30a2": 29372, "\u7b46\u982d": 9954, "\u904b\u884c": 90411, "\u7a7a\u6e2f": 72080, "\u30cf\u30d6": 4227, "\u52d5\u54e1": 14573, "CAP": 1781, "##MA": 18207, "\u7a81\u7834": 15106, "\u5024": 67707, "##\u30c9\u30a6": 5018, "\u904a\u7267": 3667, "\u30ab\u30ea": 18153, "\u53f2\u5b9f": 4175, "\u4e00\u5e2f": 16806, "\u30a2\u30ba": 4253, "##\u30cf\u30eb": 3542, "\u30b9\u30f3": 4905, "##\u96c6": 17242, "##\u305b\u308b": 16104, "\u571f\u7740": 2683, "\u4fe1\u5f92": 5571, "\u6539": 21506, "##\u59d3": 9760, "\u592b\u5a66": 14681, "\u9ad8\u6821": 132944, "1923": 17366, "\u7d66\u6599": 5035, "\u6599": 33699, "\u30ab\u30ea\u30ad\u30e5\u30e9\u30e0": 2924, "\u5145\u5b9f": 10460, "##J": 31644, "Japan": 10554, "School": 5598, "\u958b\u6821": 11972, "##ICA": 3419, "\u5b66\u7d1a": 4649, "\u6e05\u6383": 3891, "\u65b9\u91dd": 32718, "\u6821\u5185": 2477, "\u66b4\u529b": 19110, "\u6383\u9664": 6137, "\u63a8\u8a08": 4020, "71": 18913, "83": 17031, "\u5409\u6751": 3481, "\u5c0f\u6c60": 3751, "\u767e\u5408": 3911, "1908": 12644, "\u5275\u4f5c": 14817, "##\u30fb\u30de": 18236, "\u30ce\u30fc\u30d9\u30eb": 7135, "\u8cde": 209825, "\u53d7\u8cde": 114978, "\u30e6\u30cd\u30b9\u30b3": 4815, "\u767b\u9332": 73514, "\u3061\u3087": 5419, "\u3051\u3093": 39110, "\u59d4\u306d": 4593, "\u30f6\u56fd": 4728, "\u30ec\u30b3\u30fc\u30c9": 49787, "\u53d6\u6271": 7036, "\u7565\u79f0": 29863, "\u8a31": 9895, "##\u8afe": 3734, "\u5229\u76ca": 22754, "\u4fc3\u3057": 4587, "##\u30c6\u30a3\u30d6": 9410, "\u82f1\u7c73": 3269, "\u610f\u6b32": 5766, "\u5747\u8861": 4597, "\u6cd5\u5236": 4956, "\u7121\u540d": 4785, "\u56e3\u4f53": 86518, "\u8da3\u65e8": 6223, "\u672c\u4eba": 35739, "\u5ef6\u9577": 37752, "\u30b3\u30fc\u30c8": 17243, "TP": 3525, "##IP": 10296, "\u7de0": 3041, "\u9075": 3774, "##\u5b88": 15510, "1996": 60454, "\u524a\u9664": 11717, "TR": 15577, "##TO": 10843, "\u6700\u9577": 6676, "\u30b0\u30a2": 9346, "\u30bb\u30f3\u30c8": 24192, "##\u30d3\u30f3": 19920, "##\u30bb\u30f3\u30c8": 4531, "\u30b0\u30ec": 10215, "##\u30c7\u30a3\u30fc\u30f3": 2689, "\u30b5\u30e2\u30a2": 1963, "1993": 53925, "\u6307\u4ee4": 7830, "\u30af\u30e9\u30b7\u30c3\u30af": 19104, "\u4f5c\u66f2": 91307, "1965": 31130, "\u65ad\u5ff5": 10152, "\u6e80\u4e86": 8528, "\u7b97\u51fa": 4352, "\u521d\u6f14": 14444, "\u4e0a\u6f14": 18205, "\u5236\u4f5c": 128222, "\u811a\u672c": 40710, "\u53f0\u672c": 4618, "\u306a\u304d": 13708, "\u767a\u58f2": 239984, "\u5546\u54c1": 53248, "1987": 46879, "\u77ed\u7e2e": 13940, "\u63aa\u7f6e": 20559, "\u6545\u4eba": 1855, "\u30d4\u30ab": 6740, "205": 4483, "\u30d6\u30e9": 29331, "##\u30c3\u30bb\u30eb": 6104, "\u671f\u9650": 17315, "\u64a4\u56de": 5925, "\u8077\u52d9": 9162, "\u00a7": 388, "302": 2568, "Co": 26572, "##yr": 4971, "Act": 4614, "1998": 64440, "\u30bd\u30cb\u30fc": 15328, "CT": 5487, "##EA": 9221, "\u30ab\u30ea\u30d5\u30a9\u30eb\u30cb\u30a2": 35630, "\u4e0b\u9662": 13159, "\u30d7\u30ed\u30b0\u30e9": 3387, "\u7279\u8a31": 15823, "\u9055\u53cd": 19359, "\u63d0\u8a34": 3238, "\u5168\u9762": 15452, "\u5468": 42775, "\u767a\u52b9": 3705, "\u6709\u7dda": 2691, "203": 5174, "\u6e80\u305f\u3059": 11270, "\u7279\u8a18": 5427, "\u59cb": 10304, "\u5546\u6a19": 9801, "\u8981\u3057": 5748, "##\u9805": 4352, "\u4eab": 6456, "\u672c\u9805": 13091, "1899": 9347, "##\u3069\u3063": 3643, "\u68b6": 4700, "##\u4e95": 60028, "##\u6b21\u90ce": 22057, "##\u5d0e": 43054, "\u85e4\u6751": 2848, "\u592a\u5bb0": 2918, "\u85e4\u7530": 9171, "\u4f46": 1389, "\u7b46": 14055, "\u5b9f\u540d": 2795, "\u82b8\u540d": 9655, "\u56db\u80a1": 2274, "\u30cb\u30c3\u30af\u30cd\u30fc\u30e0": 5819, "\u30cf\u30f3\u30c9\u30eb": 6341, "\u30cd\u30fc\u30e0": 19453, "\u30da\u30f3": 25515, "\u65e5\u6ca1": 3505, "\u6cd5\u4eba": 75955, "\u6f14\u51fa": 35241, "\u629c": 7366, "##\u7c8b": 3989, "\u72ec\u5275": 2358, "\u6226\u6642": 15372, "1966": 30576, "\u5354\u4f1a": 102107, "\u8981\u671b": 10843, "\u898b\u9001": 4224, "\u63a1\u629e": 8317, "\u9010": 2849, "##\u5831": 15895, "\u30de\u30ac\u30b8\u30f3": 14184, "\u30b9\u30c8\u30fc\u30ea\u30fc": 54871, "\u5b8c\u7d50": 8815, "\u30bf\u30a4\u30e0": 52183, "\u5348\u524d": 23834, "\u5168\u96c6": 6306, "\u9023\u8f09": 56816, "1984": 43052, "\u6b21\u56de": 5275, "\u307f\u306a\u3059": 3223, "\u4e0d\u5f53": 4271, "\u9632\u3050": 15015, "\u7279\u4f8b": 5396, "\u6e80\u671f": 2975, "\u52a0\u7b97": 5120, "\u524d\u65e5": 11105, "\u4fb5\u5bb3": 7179, "\u7de8\u66f2": 18604, "\u5909\u5f62": 11049, "##\u6848": 13537, "##\u7531": 4393, "\u6c11\u8b21": 5099, "My": 11816, "Grand": 2794, "##ather": 2381, "Cl": 12823, "##ock": 7511, "\u90a6\u984c": 3536, "\u4f5c\u8a5e": 33848, "\u30d8\u30f3\u30ea\u30fc": 21751, "\u30af\u30ec\u30a4": 11666, "\u30ef\u30fc\u30af": 8058, "##\u5bcc": 9317, "##\u5348": 4056, "\u539f\u4f5c": 49004, "\u5186\u6ed1": 2837, "\u9332\u753b": 4832, "\u5348\u5f8c": 29085, "202": 7908, "\u65b0\u65e7": 1954, "\u6587\u7406": 2880, "\u3088\u3070": 5564, "\u4f11\u65e5": 11511, "##\u30a6\u30f3\u30c8": 3416, "\u30d4\u30af\u30c1\u30e3\u30fc\u30ba": 3183, "\u30b3\u30fc\u30dd\u30ec\u30fc\u30b7\u30e7\u30f3": 5514, "##\u5b89": 27840, "DVD": 45818, "\u88fd\u9020": 119707, "\u30d5\u30a1\u30fc\u30b9\u30c8": 15499, "\u30c8\u30ec\u30fc": 6591, "##\u30c7\u30a3\u30f3\u30b0": 21231, "\u5730\u88c1": 5300, "\u51e6\u5206": 29994, "\u30b7\u30a7\u30fc\u30f3": 2685, "\u5374\u4e0b": 4676, "\u8acb\u6c42": 15146, "\u68c4\u5374": 3865, "##\u670d": 19769, "\u5373\u6642": 2618, "\u6297": 25749, "##\u544a": 6798, "\u6557": 50796, "##\u8a34": 8291, "\u4e0a\u544a": 3409, "\u6c7a\u7740": 6311, "\u30c1\u30e3\u30fc\u30ea\u30fc": 4719, "\u30c1\u30e3\u30c3\u30d7\u30ea\u30f3": 2849, "\u30ea\u30d2": 3529, "##\u30b7\u30e5\u30bf\u30a4\u30f3": 10361, "\u30e2\u30c0\u30f3": 4020, "1936": 21732, "\u30bf\u30a4\u30c8\u30eb": 90568, "\u640d\u5bb3": 17033, "\u8ce0\u511f": 10542, "\u9644": 9934, "\u6bba\u4eba": 23370, "\u72c2": 12565, "##\u30e9\u30a4\u30c8": 12178, "2022": 3334, "\u5728\u5eab": 3106, "\u30de\u30b9\u30bf\u30fc": 16507, "\u5ec3\u68c4": 8381, "##\u8ca1": 7379, "\u9ad8\u88c1": 2404, "\u4e0b\u3057": 12755, "\u53f0\u6771": 4248, "\u3068\u3046": 21466, "\u6d45\u8349": 8945, "1400": 3800, "\u753a\u6c11": 2445, "\u606f": 9234, "\u9707\u707d": 22550, "\u713c\u3051": 3786, "##\u6b8b": 5726, "##\u6a4b": 33068, "##\u9688": 5071, "\u554f\u5c4b": 3962, "\u4e0a\u91ce": 18637, "\u4fe1\u8d8a": 2826, "\u7384\u95a2": 6302, "\u5e79\u7dda": 31357, "\u505c\u8eca": 34759, "\u5168\u822c": 10228, "\u6238": 39931, "##\u5efa": 2880, "\u30de\u30f3\u30b7\u30e7\u30f3": 10985, "\u8ca1": 39314, "##\u90fd": 15040, "\u7f8e\u3057\u3044": 17513, "\u98a8\u571f": 5085, "\u6b8b\u3059": 10203, "\u826f\u597d": 8302, "\u5bdb\u6c38": 10799, "##\u6176": 11806, "##\u533a": 13482, "\u4e0b\u753a": 2455, "##\u4ed8\u304f": 2218, "\u7531": 19222, "\u5408\u4f75": 66287, "\u7d1b": 6366, "##\u7cfe": 989, "##\u51fa\u3055": 18694, "\u53ce\u675f": 5783, "\u9ad8\u53f0": 3310, "\u9023\u60f3": 4155, "##\u308f\u305b": 2004, "##\u7155": 1669, "\u8f09": 3680, "\u745e": 9306, "##\u7965": 2700, "\u3075\u308a": 5329, "\u304f\u3089\u3044": 21424, "\u3060\u3044": 28065, "\u753a\u540d": 16909, "\u5bfe\u5cb8": 5964, "\u58a8": 8066, "\u795e\u7530": 8734, "\u6b04": 8639, "\u4e01\u76ee": 75748, "##\u591c": 14184, "\u591c\u9593": 14324, "\u901a\u52e4": 12295, "\u901a\u5b66": 12076, "\u6b8b\u7559": 10479, "303": 2382, "\u4e0d\u8a73": 15338, "\u30b0\u30e9\u30d5": 10148, "\u4ee4\u548c": 17065, "\u5143\u5e74": 61903, "\u53f0\u98a8": 22272, "\u751a\u5927": 3126, "\u88ab\u3063": 4617, "\u8077\u54e1": 24030, "\u30db\u30fc\u30e0": 102789, "\u62d2\u5426": 28344, "\u53c2\u9662": 2406, "\u30ab\u6240": 3420, "\u5fcd": 9957, "##\u5ca1": 33554, "\u8a2a\u308c": 35221, "\u53d7\u4ed8": 4191, "\u4f4f\u6240": 9716, "\u6c0f\u540d": 3204, "\u7533\u544a": 3395, "##\u8fd4\u3057": 13403, "\u660e\u308b": 3979, "\u51fa\u308b": 31213, "\u53d6\u6750": 19997, "\u9632\u707d": 7927, "\u30b3\u30e1\u30f3\u30c8": 22292, "\u88d5\u5b50": 1787, "\u5b89\u500d": 9671, "\u664b\u4e09": 2184, "\u7dcf\u7406": 13404, "\u88ab\u707d": 10279, "\u53d7\u3051\u5165\u308c\u308b": 5134, "\u7b54\u5f01": 2226, "\u58f0\u660e": 9226, "\u3064\u304d": 25805, "\u5927\u5909": 24399, "\u3067\u3057": 99580, "\u5fc3\u914d": 17164, "##\u646f": 935, "\u7acb\u3061\u4e0a\u3052": 14113, "\u63f4\u52a9": 19181, "\u8b1d\u7f6a": 9116, "\u8846\u8b70": 37717, "##\u5272": 3502, "\u6771\u4e0a": 1900, "##\u675f": 8872, "##\u6238": 25544, "\u5824": 8658, "\u65c5\u5ba2": 36361, "JR": 65411, "\u4eac\u6210": 7816, "\u96fb\u9244": 19678, "\u6771\u6b66": 7978, "\u3064\u304f\u3070": 5212, "\u30a8\u30af\u30b9\u30d7\u30ec\u30b9": 6818, "\u5faa\u74b0": 13695, "##\u308a\u3093": 1992, "\u65e5\u7acb": 11496, "\u59d4\u8a17": 15603, "\u591c\u884c": 4465, "\u3044\u308f\u304d": 3655, "##\u8328": 887, "##\u57ce": 52812, "##\u8429": 876, "\u3072\u305f": 2375, "\u5e38\u9678": 6646, "##\u592a": 30045, "##\u5bae": 43838, "\u90a3\u73c2": 3237, "\u6c34\u6238": 13364, "\u65b0\u5bbf": 24217, "\u964d\u8eca": 3152, "\u6df1\u591c": 24324, "\u6025\u884c": 25136, "\u30ea\u30e0": 6863, "\u822a\u8def": 13907, "\u6c7d\u8239": 5147, "\u30ca\u30f3\u30d0\u30fc": 15538, "\u30d7\u30ec\u30fc\u30c8": 11012, "\u904b\u8f38": 13255, "\u652f\u5c40": 4376, "\u5272\u308a\u5f53\u3066": 10943, "\u6c5f\u6238\u5ddd": 3971, "\u845b\u98fe": 3941, "\u6c5f\u6771": 3630, "\u8352\u5ddd": 8262, "\u540d\u7269": 4740, "\u30ad\u30e3\u30e9\u30af\u30bf\u30fc": 101483, "\u304f\u3093": 13940, "\u6b53": 6952, "\u7530": 53671, "\u30b9\u30bf\u30fc": 63964, "\u698e\u672c": 2742, "\u5065\u4e00": 4412, "\u53e4\u5ddd": 4964, "\u559c\u5287": 5623, "\u30b9\u30c8": 17937, "##\u30ea\u30c3\u30d7": 4169, "\u5e55": 23785, "\u6e25\u7f8e": 1951, "\u516b\u90ce": 3424, "\u8429": 7018, "\u6b3d": 4413, "\u5742\u4e0a": 2898, "\u4e8c\u90ce": 4295, "\u30d3\u30fc\u30c8": 7368, "\u305f\u3051\u3057": 6010, "\u82b8\u80fd": 30195, "\u3086\u304b\u308a": 5699, "Ge": 9325, "\u79d1\u76ee": 10504, "\u5b66\u3076": 22528, "\u516c\u6c11": 6909, "\u8fb2\u5b66": 6349, "\u542b\u307f": 5309, "\u72ed\u7fa9": 5038, "##qu": 11900, "##are": 10855, "##na": 36966, "##land": 6644, "Project": 4082, "gl": 3723, "##ary": 6236, "te": 17351, "\u6319\u52d5": 2275, "\u840c": 3464, "\u92ed\u3044": 3537, "\u591a\u5927": 7550, "Hist": 2340, "an": 15863, "##ima": 12527, "##\u300e": 6666, "De": 26713, "##ene": 5538, "##one": 16319, "\u970a": 29742, "##\u9b42": 5888, "\u8d8a\u3048\u308b": 6854, "\u9b5a\u985e": 6203, "\u968f\u6240": 2540, "\u7269\u4f53": 8403, "\u30a8\u30a4\u30c9": 2257, "\u8d77\u52d5": 7335, "\u30b8\u30e3\u30fc": 10508, "Ab": 6538, "##\u016b": 2426, "\u1e24": 151, "##\u012b": 3166, "D": 102339, "89": 15199, "\u30d5\u30a1\u30f3": 74376, "##\u30a6\u30a7\u30f3": 4136, "\u6ef4": 2123, "\u9a5a\u304f": 4753, "\u5947\u5999": 6359, "\u30e4\u30f3": 14210, "\u30b9\u30ef\u30f3": 3120, "\u89e3\u5256": 5526, "\u30ea\u30f3": 33035, "\u30c1\u30e3\u30fc\u30eb\u30ba": 19488, "\u30c0\u30fc\u30a6\u30a3\u30f3": 2670, "\u30b0\u30ec\u30b4": 3657, "\u30e8\u30cf\u30f3": 11399, "1839": 3099, "\u30de\u30c6": 8039, "##\u30a2\u30b9": 14416, "\u30e4\u30fc": 8693, "\u30ed\u30d9\u30eb\u30c8": 4685, "\u30de\u30af": 22874, "\u30eb\u30c9\u30eb\u30d5": 4763, "\u30eb\u30fc\u30c8\u30f4\u30a3\u30d2": 6671, "##\u30e7\u30a6": 8535, "\u4ed5\u4e8b": 101527, "\u30b2\u30ce\u30e0": 4077, "(-": 5203, "##\u30c3\u30cf": 5543, "\u30b4\u30c3\u30c8": 3098, "##\u30d5\u30ea\u30fc\u30c8": 2215, "##\u30db\u30eb": 5901, "\u30c8\u30ec": 17071, "\u30e9\u30de": 6772, "\u6216\u3044\u306f": 4000, "\u5316\u5408": 13924, "\u9084\u5143": 8726, "\u3082\u305f\u3089\u3057": 14406, "\u30d0\u30a4\u30aa": 12507, "\u502b\u7406": 9064, "\u540c\u5b9a": 3779, "\u6d3b\u6027": 21478, "\u6e2c\u5b9a": 21374, "\u89e3\u8aad": 3948, "\u80cc\u5f8c": 7944, "##\u3076\u308a": 3282, "\u7d50\u3073\u3064\u3044": 3565, "\u5099\u308f\u3063": 2306, "\u7a81\u7136": 19509, "\u8a98\u767a": 2933, "\u79fb\u690d": 14238, "\u518d\u73fe": 15631, "##\u89b3": 15778, "\u9664": 13302, "\u8a66\u307f\u308b": 4111, "\u30a4\u30f3\u30d5\u30a9": 3155, "##\u30c6\u30a3\u30af\u30b9": 2697, "\u898b\u3044": 2562, "\u6355": 9169, "\u30d1\u30e9\u30e1\u30fc\u30bf": 5738, "\u30b7\u30df\u30e5\u30ec\u30fc\u30b7\u30e7\u30f3": 7375, "\u89e3\u304d": 2550, "##\u660e": 52660, "\u50be\u5012": 3160, "\u629c\u3051\u51fa\u3057": 2930, "\u3042\u3064": 6024, "##\u304b\u3046": 1040, "\u30af\u30b9": 5480, "##\u65b0": 10125, "\u30b7\u30d5\u30c8": 8185, "\u30bb\u30f3\u30c8\u30e9\u30eb": 9795, "##\u30b0\u30de": 4469, "\u3082\u305f\u3089\u3055": 6288, "##\u96d1": 4204, "\u56e0\u5b50": 9118, "\u62c5": 4887, "\u30ef\u30c8\u30bd\u30f3": 2472, "\u30d5\u30e9\u30f3\u30b7\u30b9": 6915, "\u30af\u30ea\u30c3\u30af": 3044, "\u6a21\u578b": 11097, "##\u305b\u3093": 11275, "\u9396": 10541, "##\u5411\u304d": 9085, "\u898b\u4e8b": 6309, "\u6697\u53f7": 10574, "\u6559\u7fa9": 4958, "##\u5207\u308b": 6939, "\u30ea\u30dc": 4407, "##\u30b6\u30a4": 4180, "##ome": 15947, "##-": 50821, "o": 38523, "Ver": 8385, "\u53f2\u5b66": 6557, "\u30d7\u30ed\u30c6": 4892, "\u3057\u308c": 39826, "\u3042\u3044\u3060": 6365, "\u63a2\u7d22": 7400, "\u308c\u308c": 2919, "\u6539\u5909": 5346, "\u8feb\u3089": 4352, "\u85ac\u5b66": 5016, "\u307e\u3059\u307e\u3059": 5657, "\u3042\u308f\u305b": 12789, "##\u3082\u3063": 5484, "\u4fbf\u5b9c": 6824,
[...]
